{"idx_to_token": {"0": "[PAD]", "1": "[UNK]", "2": "\uff0c", "3": "\u3002", "4": "\u4e86", "5": " ", "6": "\u662f", "7": ",", "8": "\u6211", "9": "\u5f88", "10": "\uff01", "11": "\u4e5f", "12": "\u5728", "13": "\u9152\u5e97", "14": "\u4e0d", "15": "\u90fd", "16": "\u6709", "17": "\u5c31", "18": ".", "19": "\u6ca1\u6709", "20": "\u8fd8", "21": "\u623f\u95f4", "22": "\u597d", "23": "\u548c", "24": "\u8fd9", "25": "\u4e0d\u9519", "26": "\u3001", "27": "\u770b", "28": "\u8bf4", "29": "\u53ef\u4ee5", "30": "\u4eba", "31": "\u6211\u4eec", "32": "\u5230", "33": "\u4e00\u4e2a", "34": "\u672c\u4e66", "35": "\u8fd8\u662f", "36": "\u611f\u89c9", "37": "\u6bd4\u8f83", "38": "\u5c31\u662f", "39": "\u7ed9", "40": "\u8981", "41": "\u4e70", "42": "\u53bb", "43": "\u4f46", "44": "\u670d\u52a1", "45": "\u4e66", "46": "\u8ba9", "47": "\u5bf9", "48": "\u4f4f", "49": "\u81ea\u5df1", "50": "\uff1a", "51": "\u7528", "52": "\u975e\u5e38", "53": "\u4e0a", "54": "\uff1f", "55": "\u8fd9\u4e2a", "56": "\u4f46\u662f", "57": "\u5165\u4f4f", "58": "\u559c\u6b22", "59": "!", "60": "\u6ca1", "61": "\u4f1a", "62": "\u4e0d\u662f", "63": "\u4ed6", "64": "~", "65": "\u80fd", "66": "\u4ec0\u4e48", "67": "2", "68": "\u4f60", "69": "\u591a", "70": "\u53c8", "71": "\u540e", "72": "\u77e5\u9053", "73": "\u65f6\u5019", "74": "\u624d", "75": "\u6709\u70b9", "76": "\u89c9\u5f97", "77": "\u592a", "78": "\uff1b", "79": "\u800c\u4e14", "80": "\u5b69\u5b50", "81": "\u95ee\u9898", "82": "\u5979", "83": "\u201c", "84": "\u5f88\u591a", "85": "\u4e2d", "86": "\u4ef7\u683c", "87": "\uff09", "88": "\u5c0f", "89": "\u201d", "90": "1", "91": "\u4e0d\u8fc7", "92": "3", "93": "\u56e0\u4e3a", "94": "\u4e00\u822c", "95": "\u4e2a", "96": "\uff08", "97": "\u5927", "98": "\u7cfb\u7edf", "99": "\u8fd9\u6837", "100": "\u60f3", "101": "\u65f6", "102": "\u8fc7", "103": "\u524d\u53f0", "104": "\u6708", "105": "\u65b9\u4fbf", "106": "\u65e9\u9910", "107": "\u628a", "108": "\u518d", "109": "\u8fd8\u6709", "110": "\u6bd4", "111": "\u643a\u7a0b", "112": "\u5982\u679c", "113": "\u6765", "114": "\u91cc", "115": "\u7740", "116": "\u670d\u52a1\u5458", "117": "\u554a", "118": "\u6240\u4ee5", "119": "\u5dee", "120": "\u4ece", "121": "\u5bbe\u9986", "122": "\u4e0d\u80fd", "123": "\u53d1\u73b0", "124": "\u5f97", "125": "\u73b0\u5728", "126": "\u4e0e", "127": "\u4e1c\u897f", "128": "\u770b\u5230", "129": "4", "130": "\u8bbe\u65bd", "131": "\u5df2\u7ecf", "132": "\u867d\u7136", "133": "\u66f4", "134": "\u65e5", "135": "\u5185\u5bb9", "136": "\u4e0d\u597d", "137": "\u5143", "138": "\u670b\u53cb", "139": "\u4e00\u672c", "140": "\u505a", "141": "\u4e00", "142": "\u4ed6\u4eec", "143": "\u88ab", "144": "\u5e94\u8be5", "145": "\u6700", "146": "\u2026", "147": "\u300b", "148": "\u9ad8", "149": "\u300a", "150": "\u4f5c\u8005", "151": "\u9a71\u52a8", "152": "\u665a\u4e0a", "153": "\u88c5", "154": "\u5ba2\u4eba", "155": "\u53ef\u80fd", "156": "5", "157": "\u6709\u4e9b", "158": "\u65f6\u95f4", "159": "\u4e00\u6837", "160": "\u4e00\u4e9b", "161": "?", "162": "\u4e3a", "163": "\u5e0c\u671b", "164": "\u7b49", "165": "\u70b9", "166": "\u6027\u4ef7\u6bd4", "167": "\u800c", "168": "\u771f\u7684", "169": "\u5e74", "170": "\u4e00\u70b9", "171": "\u4e0b", "172": "\u5b9e\u5728", "173": "\u91cc\u9762", "174": "\u4e00\u4e0b", "175": "\u4e0d\u4f1a", "176": "\u4ee5\u540e", "177": "\u63a8\u8350", "178": "\u5374", "179": "\u6545\u4e8b", "180": "\u5927\u5bb6", "181": "\u952e\u76d8", "182": "\u53ea\u6709", "183": "\u5176\u4ed6", "184": "\u600e\u4e48", "185": "\u90a3", "186": "\u90a3\u4e48", "187": "\u5730\u65b9", "188": "\u901f\u5ea6", "189": "\u9700\u8981", "190": "XP", "191": "\u5b83", "192": "\u5c0f\u65f6", "193": "\u7279\u522b", "194": "\u5efa\u8bae", "195": "\u627e", "196": "\u5c4f\u5e55", "197": "\u73af\u5883", "198": "\u9009\u62e9", "199": "\u5199", "200": "\u623f", "201": "\u914d\u7f6e", "202": "\u5e76", "203": "\u9001", "204": "\u8bfb", "205": "\u7ed3\u679c", "206": "\u4e00\u76f4", "207": "\u5916\u89c2", "208": "\u503c\u5f97", "209": "\u6563\u70ed", "210": "\u60a8", "211": "\u5f00\u59cb", "212": "\u5bf9\u4e8e", "213": "\u5c45\u7136", "214": "\u751f\u6d3b", "215": "\u53ea\u662f", "216": "\u8d77\u6765", "217": "\u4e0d\u8981", "218": "\u8fd9\u4e48", "219": "\u633a", "220": "\u4e0b\u6b21", "221": "\u6765\u8bf4", "222": "\u53ea\u80fd", "223": "\u5b8c", "224": "6", "225": "\u8d28\u91cf", "226": "\u5185\u5b58", "227": "\u5e72\u51c0", "228": "\u6700\u540e", "229": "\u5403", "230": "\u8ddf", "231": "\u9002\u5408", "232": "\u540e\u6765", "233": "10", "234": "\u4eac\u4e1c", "235": "\u7535\u6c60", "236": "\u50cf", "237": "\u58f0\u97f3", "238": "\u53ef", "239": "\u771f\u662f", "240": "\u5f88\u5927", "241": "\u6001\u5ea6", "242": "-", "243": "\u7b97", "244": "\u4e0a\u7f51", "245": "\u8981\u6c42", "246": "\u53ef\u662f", "247": "\u8be5", "248": "\u8fd9\u5bb6", "249": "\u53e6\u5916", "250": "\u5730", "251": "\u8fd9\u91cc", "252": "\u4f7f\u7528", "253": "\u5931\u671b", "254": "\u8fd9\u79cd", "255": "\u53ea", "256": "\u4e00\u5b9a", "257": "\u5c06", "258": "\u8212\u670d", "259": "2008", "260": "\u672c", "261": "\u6362", "262": "\u7adf\u7136", "263": "\u7f51\u4e0a", "264": "\u5176\u5b9e", "265": "\u7684\u8bdd", "266": "\u4e3a\u4ec0\u4e48", "267": "\uff0e", "268": "7", "269": ")", "270": "\u603b\u4f53", "271": "\u6ee1\u610f", "272": "\u70b9\u8bc4", "273": "\u7535\u8bdd", "274": "\u8f83", "275": "\u536b\u751f\u95f4", "276": "\u8bb2", "277": "\u95ee", "278": "\u513f\u5b50", "279": "\u597d\u50cf", "280": "\u4e0d\u5230", "281": "\u4f4d\u7f6e", "282": "\u88c5\u4fee", "283": "\u62ff", "284": "\u673a\u5668", "285": "\u7231", "286": "\u5b89\u88c5", "287": "\u4e4b\u540e", "288": "\u9ebb\u70e6", "289": "\u514d\u8d39", "290": "\u786e\u5b9e", "291": "\u79bb", "292": "\u6839\u672c", "293": "\u9605\u8bfb", "294": "\u90a3\u4e2a", "295": "\u6536\u5230", "296": "(", "297": "\u5e26", "298": "\u51fa\u6765", "299": "\u7535\u8111", "300": "\u6253", "301": "\u9910\u5385", "302": "\u5f53\u5f53", "303": "\u65b0", "304": "\u505a\u5de5", "305": "\u786c\u76d8", "306": "\u672c\u6765", "307": "\u8fd9\u6b21", "308": "\u5f53", "309": "/", "310": "8", "311": "\u5de5\u4f5c", "312": "\u9884\u5b9a", "313": "\u5475\u5475", "314": "\u53eb", "315": "\u542c", "316": "\u4ee5\u524d", "317": "\u7b80\u5355", "318": "\u63d0\u4f9b", "319": "\u5927\u5802", "320": "\u4ea4\u901a", "321": "\u4e2a\u4eba", "322": "\u4fbf\u5b9c", "323": "\u9000\u623f", "324": "\u8d70", "325": "\u770b\u770b", "326": "\u6253\u7535\u8bdd", "327": "\u6807\u51c6", "328": "\u6240\u6709", "329": "\u7a7a\u8c03", "330": "\u5bb9\u6613", "331": "\u4eba\u5458", "332": "\u4e00\u6b21", "333": "\u8bc4\u8bba", "334": "\u4e2d\u56fd", "335": "\u901a\u8fc7", "336": "\u5feb", "337": "\u8fde", "338": "\u4e86\u89e3", "339": "\u7b2c\u4e00\u6b21", "340": "\u4e66\u4e2d", "341": "\u8fd9\u662f", "342": "\u57fa\u672c", "343": "\u5c24\u5176", "344": "\u5b8c\u5168", "345": "\u7b2c\u4e8c\u5929", "346": "\u6ca1\u4ec0\u4e48", "347": "\u65b9\u9762", "348": "\u4e00\u8d77", "349": "\u76f4\u63a5", "350": "\u8ba2", "351": "\u544a\u8bc9", "352": "\u4e24\u4e2a", "353": "\u6548\u679c", "354": "\u6240", "355": "\u5c0f\u8bf4", "356": "\u6f02\u4eae", "357": "\u6700\u597d", "358": "\u65e0\u6cd5", "359": "\u62ff\u5230", "360": "\u9648\u65e7", "361": "\u8865\u5145", "362": "\u5206\u949f", "363": "\u5973\u513f", "364": "\u4ecb\u7ecd", "365": "\u8fd9\u4e9b", "366": "\u6027\u80fd", "367": "\u5929", "368": "\u5f88\u5feb", "369": "\u76f8\u5f53", "370": "\u5957\u4e66", "371": "\u697c", "372": "\u7136\u540e", "373": "\u4e5f\u8bb8", "374": "\u539f\u6765", "375": "\u8bbe\u8ba1", "376": "\u4f60\u4eec", "377": "\u6587\u5b57", "378": "...", "379": "\u8bc4\u4ef7", "380": "\u4f5c\u4e3a", "381": "\u65e7", "382": "\u5e2e", "383": "\u4e0d\u5982", "384": "\u5b9d\u5b9d", "385": "\u5c11", "386": ":", "387": "\u7531\u4e8e", "388": "\u4eec", "389": "\u9664\u4e86", "390": "\u51fa", "391": "\u670d\u52a1\u6001\u5ea6", "392": "\u661f", "393": "\u60c5\u51b5", "394": "\u672c\u4eba", "395": ";", "396": "\u4ee5", "397": "\u4e4b\u524d", "398": "\u5c81", "399": "\u94b1", "400": "\u770b\u8fc7", "401": "\u5ba2\u623f", "402": "\u6b64\u4e66", "403": "\u5f53\u7136", "404": "\u4e00\u5929", "405": "\u5927\u5e8a", "406": "\u539f\u56e0", "407": "\u5f00", "408": "\u524d", "409": "\u9694\u97f3", "410": "\u90a3\u4e9b", "411": "\u4e00\u79cd", "412": "\u4ee5\u4e3a", "413": "\u2014", "414": "9", "415": "\u672c\u672c", "416": "\u8fd8\u8981", "417": "\u63a5\u53d7", "418": "\u627e\u5230", "419": "\u4e4b", "420": "\u5f71\u54cd", "421": "\u4efb\u4f55", "422": "\u4e3a\u4e86", "423": "\u53cd\u9988", "424": "\u7b14\u8bb0\u672c", "425": "\u4e8b\u60c5", "426": "\u5473\u9053", "427": "\u786c\u4ef6", "428": "\u8bf7", "429": "\u5b66\u4e60", "430": "\u771f", "431": "\u5546\u52a1", "432": "\u521a", "433": "\u6253\u5f00", "434": "\u51e0\u4e2a", "435": "\u5b8c\u7f8e", "436": "\u60f3\u8c61", "437": "\u4e0d\u77e5", "438": "\u518d\u6b21", "439": "\u5df2", "440": "\u663e\u5361", "441": "\u5982\u4f55", "442": "20", "443": "12", "444": "\u7406\u89e3", "445": "\u8d35", "446": "xp", "447": "\u8fd0\u884c", "448": "\u5c4f", "449": "\u5f53\u65f6", "450": "\u522b\u4eba", "451": "\u5730\u7406\u4f4d\u7f6e", "452": "\u65e9\u4e0a", "453": "\u8fd8\u597d", "454": "\u8bf4\u660e", "455": "\u5386\u53f2", "456": "\u7b80\u76f4", "457": "\u662f\u4e0d\u662f", "458": "\u7edd\u5bf9", "459": "\u5f88\u5dee", "460": "\u5173\u4e8e", "461": "\u552f\u4e00", "462": "\u5012", "463": "\u8ba4\u4e3a", "464": "\u603b\u4e4b", "465": "\u5411", "466": "\u8fd9\u672c", "467": "\u6bcf\u4e2a", "468": "\u8001", "469": "\u5de6\u53f3", "470": "\u95e8\u53e3", "471": "\u4e8e\u662f", "472": "\u9001\u8d27", "473": "\u5b57", "474": "\u6216", "475": "\u4e0d\u540c", "476": "\u70ed", "477": "\u65e0", "478": "\u6574\u4f53", "479": "\u4e0d\u591f", "480": "\u8d2d\u4e70", "481": "\u592a\u5c0f", "482": "\u603b\u662f", "483": "\u95f4", "484": "\u4e0d\u592a", "485": "\u80fd\u591f", "486": "\u8003\u8651", "487": "\u660e\u663e", "488": "\u8c6a\u534e", "489": "\u540c\u4e8b", "490": "\u4eca\u5929", "491": "\u5982", "492": "\u56db\u661f", "493": "\u6559\u80b2", "494": "\u4e09\u661f", "495": "\u9f20\u6807", "496": "\u5f88\u5c0f", "497": "\u540c\u65f6", "498": "\u597d\u770b", "499": "\u4e9b", "500": "\u5361", "501": "\u996d\u5e97", "502": "\u4e00\u5bb6", "503": "\u5ba2\u6237", "504": "\u6216\u8005", "505": "\u53f7", "506": "\u4e0d\u5c11", "507": "\u5176\u4e2d", "508": "\u5982\u6b64", "509": "\u5566", "510": "\u8f6f\u4ef6", "511": "\u4e8e", "512": "\u770b\u7740", "513": "\u9047\u5230", "514": "\u5206\u533a", "515": "\u6444\u50cf\u5934", "516": "\u53ea\u8981", "517": "\u51e0\u4e4e", "518": "\"", "519": "\u597d\u4e66", "520": "\u5c0f\u59d0", "521": "\u90c1\u95f7", "522": "\u4e16\u754c", "523": "\u5347\u7ea7", "524": "\u8ba2\u5355", "525": "\u53ca", "526": "\u7ecf\u5386", "527": "\u70ed\u60c5", "528": "\u5ba2\u670d", "529": "\u623f\u4ef7", "530": "\u51fa\u73b0", "531": "\u611f\u53d7", "532": "\u7535\u68af", "533": "\u8c01", "534": "30", "535": "VISTA", "536": "\u5f53\u5f53\u7f51", "537": "\u56de\u6765", "538": "\u66f4\u597d", "539": "\u624d\u80fd", "540": "\u6837\u5b50", "541": "\u76f8\u4fe1", "542": "\uff5e", "543": "\u63d0\u51fa", "544": "\u5149\u9a71", "545": "\u5b89\u9759", "546": "\u4e30\u5bcc", "547": "\u8bed\u8a00", "548": "\u4e3b\u8981", "549": "\u4f30\u8ba1", "550": "\u5305", "551": "\u52a0", "552": "\u6536\u8d39", "553": "\u4ef7\u94b1", "554": "vista", "555": "\u6309", "556": "\u5dee\u4e0d\u591a", "557": "\u4e00\u5957", "558": "\u5e8a", "559": "\u6b64", "560": "\u5e76\u4e14", "561": "\u8fdb\u884c", "562": "\u771f\u6b63", "563": "\u4e0d\u8db3", "564": "\u7535\u89c6", "565": "\u660e\u767d", "566": "\u9644\u8fd1", "567": "\u6240\u8c13", "568": "\u641e", "569": "\u7f3a\u70b9", "570": "\u51c6\u5907", "571": "\u4e60\u60ef", "572": "\u4e8b", "573": "\u8054\u7cfb", "574": "\u5f88\u6f02\u4eae", "575": "\u661f\u7ea7", "576": "\u884c", "577": "\u534a\u5929", "578": "\u8bfb\u8005", "579": "\u91cd\u8981", "580": "\u7b97\u662f", "581": "\u5b89\u6392", "582": "\u5988\u5988", "583": "\u6bcf", "584": "\u9996\u5148", "585": "\u5b9a", "586": "11", "587": "\u8fd1", "588": "\u90a3\u6837", "589": "\u529e\u6cd5", "590": "\u80af\u5b9a", "591": "\u4e0b\u5348", "592": "\u697c\u5c42", "593": "\u544a\u77e5", "594": "\u5185", "595": "\u8bb8\u591a", "596": "\u56db\u661f\u7ea7", "597": "\u5e2e\u52a9", "598": "\u5b9e\u7528", "599": "\u4e0d\u60f3", "600": "\u5206", "601": "\u7ed3\u5e10", "602": "15", "603": "\u5435", "604": "\u90e8\u5206", "605": "\u6b63\u5e38", "606": "\u4f5c\u54c1", "607": "\u9999\u6e2f", "608": "\u6bcf\u5929", "609": "\u7a97\u6237", "610": "\u5403\u996d", "611": "\u516c\u53f8", "612": "\u8fd8\u4f1a", "613": "\u5fc3\u60c5", "614": "\u7236\u6bcd", "615": "\u7cfb\u5217", "616": "\u90a3\u91cc", "617": "\u6c34\u5e73", "618": "\u5148", "619": "\u65e0\u7ebf", "620": "\u9884\u8ba2", "621": "\u5c0f\u5b69", "622": "\u6c34", "623": "\u5bbd\u5e26", "624": "\u6bcf\u6b21", "625": "\u8fc7\u53bb", "626": "\u8dd1", "627": "\u8981\u662f", "628": "\u574f", "629": "\u4f4e", "630": "\u4e0d\u4e86", "631": "\u611f\u52a8", "632": "\u7ec8\u4e8e", "633": "\u6ce8\u610f", "634": "\u603b\u53f0", "635": "\u5341\u5206", "636": "\u884c\u674e", "637": "\u90a3\u79cd", "638": "\u5305\u88c5", "639": "\u54e6", "640": "\u5438\u5f15", "641": "\u4e14", "642": "\u4e00\u5f20", "643": "\u5916\u9762", "644": "\u82b1", "645": "\u957f", "646": "\u7684\u786e", "647": "\u5149\u76d8", "648": "\u4f18\u70b9", "649": "\u65b9\u6cd5", "650": "\u7535\u5f71", "651": "\u8001\u5e08", "652": "\u624b\u611f", "653": "\u5904\u7406", "654": "\u65b9\u5f0f", "655": "\u5730\u6bef", "656": "\u6574\u4e2a", "657": "\u566a\u97f3", "658": "\u5f97\u5230", "659": "\u9a6c\u4e0a", "660": "\u5f00\u673a", "661": "\u673a\u573a", "662": "\u7ffb", "663": "\u5468\u56f4", "664": "\u666e\u901a", "665": "\u597d\u591a", "666": "\u6e05\u695a", "667": "\u5b9e\u9645", "668": "\u5370\u5237", "669": "\u652f\u6301", "670": "\u4f3c\u4e4e", "671": "\u6210\u529f", "672": "\u7231\u60c5", "673": "\u5973\u4eba", "674": "\u662f\u56e0\u4e3a", "675": "\u5176", "676": "\u6bd4\u5982", "677": "\u611f\u8c22\u60a8", "678": "\u4e94\u661f", "679": "\u91cd\u65b0", "680": "\u4e0b\u53bb", "681": "\u540e\u9762", "682": "\u8f66", "683": "\u6162", "684": "\u4e0d\u7528", "685": "\u6307\u7eb9", "686": "\u8fdc", "687": "\u4eba\u751f", "688": "\u7ba1\u7406", "689": "\u662f\u5426", "690": "\u671f\u5f85", "691": "\u4ef7\u4f4d", "692": "\u7ecf\u5e38", "693": "\u4e13\u4e1a", "694": "\u53ef\u60dc", "695": "\u8d27", "696": "\u8bfb\u5b8c", "697": "\u7ecf\u7406", "698": "\u6bdb\u5dfe", "699": "\u4e0d\u884c", "700": "\u54c1\u724c", "701": "\u89e3\u51b3", "702": "\u4e00\u770b", "703": "\u751a\u81f3", "704": "\u4e0b\u8f7d", "705": "\u5927\u6982", "706": "\u5174\u8da3", "707": "\u522b\u7684", "708": "\u66f4\u52a0", "709": "\u70ed\u6c34", "710": "\u63a5\u53e3", "711": "\u5783\u573e", "712": "\u663e\u793a", "713": "\u98ce\u6247", "714": "\u5f04", "715": "\u9057\u61be", "716": "\u6ca1\u60f3\u5230", "717": "\u76d8", "718": "\u6709\u4eba", "719": "\u603b", "720": "\u89e3\u91ca", "721": "\u4ee5\u53ca", "722": "\u51e0\u5929", "723": "\u7761\u89c9", "724": "\u706b\u8f66\u7ad9", "725": "\u611f\u5230", "726": "\u8fc7\u7a0b", "727": "\u770b\u8d77\u6765", "728": "\u81ea\u5e26", "729": "\u5370\u8c61", "730": "\u4e00\u53e5", "731": "\u80fd\u529b", "732": "\u8d85\u7ea7", "733": "\u6b63\u5728", "734": "\u534e\u7855", "735": "\u653e", "736": "\u8fdb\u53bb", "737": "\u53d1\u8d27", "738": "\u77e5\u8bc6", "739": "\u9884\u88c5", "740": "\u793e\u4f1a", "741": "\u4e94\u661f\u7ea7", "742": "100", "743": "\u4e0a\u6d77", "744": "\u86ee", "745": "\u76ee\u524d", "746": "\u81f3\u5c11", "747": "\u7f51\u5361", "748": "\u591f", "749": "\u9053\u7406", "750": "\u4e0a\u9762", "751": "\u6295\u8bc9", "752": "\u8fc7\u6765", "753": "\u4eba\u7269", "754": "2007", "755": "\u540e\u6094", "756": "\u5fc3\u91cc", "757": "\u62db\u5f85\u6240", "758": "\u5fc3\u7406", "759": "\u884c\u653f", "760": "\u6765\u770b", "761": "\u4e00\u5207", "762": "\u670d\u52a1\u751f", "763": "\u591a\u5c11", "764": "\u8c61", "765": "\u4e0d\u7ba1", "766": "\u6700\u5927", "767": "\u54c1\u79cd", "768": "\u8bbe\u5907", "769": "\u6d77\u666f", "770": "\u51fa\u79df\u8f66", "771": "\u6807\u95f4", "772": "\u5408\u7406", "773": "\u770b\u6765", "774": "\u6539\u8fdb", "775": "\u53ea\u597d", "776": "\u4ee5\u4e0a", "777": "\u540c\u6837", "778": "\u6700\u5dee", "779": "\u5bb6", "780": "\u653e\u5728", "781": "\u6bd5\u7adf", "782": "\u5458\u5de5", "783": "\u51b3\u5b9a", "784": "\u7a0d\u5fae", "785": "\u51fa\u5dee", "786": "\u611f\u8c22", "787": "......", "788": "\u91cd", "789": "\u6e29\u5ea6", "790": "\u8bbe\u7f6e", "791": "\u592a\u5dee", "792": "\u60c5\u8282", "793": "\u7ec6\u8282", "794": "\u800c\u662f", "795": "\u8054\u60f3", "796": "\u4e00\u95f4", "797": "\u53e6", "798": "16", "799": "\u8fdb", "800": "\u672c\u8eab", "801": "\u5f3a", "802": "\u9694\u58c1", "803": "\u5404\u79cd", "804": "\u56fe\u7247", "805": "\u4e66\u7c4d", "806": "\u600e\u6837", "807": "\u673a\u4f1a", "808": "\u56de", "809": "\u6e38\u620f", "810": "\u65c1\u8fb9", "811": "\u84dd\u7259", "812": "\u4e24\u5929", "813": "\u7ee7\u7eed", "814": "\u597d\u597d", "815": "\u89c2\u70b9", "816": "\u53ef\u7231", "817": "\u98ce\u683c", "818": "\u673a\u5b50", "819": "\u8bdd", "820": "\u5317\u4eac", "821": "\u6587\u7ae0", "822": "\u51fa\u53bb", "823": "\u9760", "824": "USB", "825": "\u53d1\u751f", "826": "\u753b\u9762", "827": "\u4e00\u4f4d", "828": "\u6253\u8f66", "829": "\u4e45", "830": "\u6210\u957f", "831": "\u4e70\u6765", "832": "\u4e3b\u52a8", "833": "\u4ee4\u4eba", "834": "\u5176\u5b83", "835": "\u6709\u4e2a", "836": "\u7248\u672c", "837": "\u989c\u8272", "838": "\u8212\u9002", "839": "\u4e0d\u6562", "840": "\u5feb\u9012", "841": "\u524d\u9762", "842": "\u610f\u601d", "843": "\u5b9e\u60e0", "844": "\u4e0d\u7b97", "845": "\u7406\u8bba", "846": "\u672a", "847": "\u5bb6\u957f", "848": "\u4e0b\u6765", "849": "\u4e00\u8fb9", "850": "\u9875", "851": "\u5fc5\u987b", "852": "\u610f\u89c1", "853": "\u7ecf\u5178", "854": "\u4e2d\u5348", "855": "\u5e8a\u5355", "856": "\u6e29\u99a8", "857": "\u5408\u9002", "858": "1G", "859": "\u53d1\u70ed", "860": "\u597d\u8c61", "861": "\u529f\u80fd", "862": "\u6709\u65f6", "863": "\u6c34\u679c", "864": "\u529e\u7406", "865": "\u7ad9", "866": "\u5c31\u7b97", "867": "\u79bb\u5f00", "868": "\u7761", "869": "\u5757", "870": "\u63d0\u9ad8", "871": "\u9001\u7ed9", "872": "\u603b\u7684\u6765\u8bf4", "873": "\u4e0d\u723d", "874": "\u6d6a\u8d39", "875": "\u4fe1\u7528\u5361", "876": "\u4e0d\u592a\u597d", "877": "\u6539\u53d8", "878": "\u6389", "879": "\u6210", "880": "\u57fa\u672c\u4e0a", "881": "\u89e6\u6478\u677f", "882": "\u54ea\u91cc", "883": "\u767d\u8272", "884": "\u4f7f", "885": "\u5916\u58f3", "886": "\u7f51\u7ad9", "887": "\u6d17\u6fa1", "888": "\u76f8\u5bf9", "889": "\u610f\u8bc6", "890": "\u771f\u5b9e", "891": "\u5916", "892": "\u51b7", "893": "\u5f00\u5fc3", "894": "\u53cd\u6b63", "895": "\u4e00\u80a1", "896": "\u7537\u4eba", "897": "14", "898": "CPU", "899": "\u623f\u95f4\u5185", "900": "\u663e\u5f97", "901": "\u8d70\u5eca", "902": "\u786e\u8ba4", "903": "\u7ffb\u8bd1", "904": "*", "905": "2G", "906": "\u5c5e\u4e8e", "907": "\u6df1\u523b", "908": "\u6587\u5316", "909": "\u671f\u95f4", "910": "\u5feb\u4e50", "911": ">", "912": "\u96be\u9053", "913": "\u4e70\u56de\u6765", "914": "\u8ba4\u8bc6", "915": "\u73a9", "916": "\u7f51\u7edc", "917": "\u53cd\u6620", "918": "\u54c8\u54c8", "919": "\u51e0\u6b21", "920": "\u5927\u9152\u5e97", "921": "\u9001\u5230", "922": "\u62c9\u62c9", "923": "\u5404", "924": "\u6ee1\u8db3", "925": "\u5426\u5219", "926": "\u8ddd\u79bb", "927": "Vista", "928": "\u70e4", "929": "\u8fdb\u5165", "930": "\u7535\u6e90", "931": "\u5957\u623f", "932": "\u542c\u8bf4", "933": "\u88ab\u5b50", "934": "\u82f1\u8bed", "935": "\u623f\u8d39", "936": "\u6b3e", "937": "\u4e09\u4e2a", "938": "\u4e4b\u95f4", "939": "\u5173\u7cfb", "940": "\u8db3\u591f", "941": "\u592a\u6162", "942": "\u8d77", "943": "\u95e8\u7ae5", "944": "\u56e0", "945": "\u8fd9\u70b9", "946": "\u591a\u6b21", "947": "\u4e25\u91cd", "948": "\u7eed\u822a", "949": "\u8d85\u503c", "950": "\u7279\u8272", "951": "\u5356", "952": "\u6d74\u5ba4", "953": "\u5230\u4f4d", "954": "\u5148\u751f", "955": "\u5f88\u8fd1", "956": "\u6000\u7591", "957": "\u56de\u7b54", "958": "\u575a\u6301", "959": "\u8c22\u8c22", "960": "\u5f88\u5c11", "961": "\u6536", "962": "\u57ce\u5e02", "963": "\u63a5\u5f85", "964": "\u751f\u547d", "965": "\u65e5\u672c", "966": "\u7cbe\u81f4", "967": "\u5168\u90e8", "968": "\u7b2c\u4e00", "969": "\u61c2", "970": "\u8eab\u8fb9", "971": "\u6761\u4ef6", "972": "\u5355\u8bcd", "973": "\u6807\u51c6\u95f4", "974": "\u810f", "975": "\u9009", "976": "\u4eab\u53d7", "977": "\u9f50\u5168", "978": "\u5bf8", "979": "\u95e8", "980": "\u66fe\u7ecf", "981": "\u5e78\u798f", "982": "\u540d\u5b57", "983": "\u8d2d\u7269", "984": "&#", "985": "\u4e00\u6761", "986": "\u5bf9\u9762", "987": "\u5230\u8fbe", "988": "\u4e00\u904d", "989": "\u5565", "990": "\u6700\u8fd1", "991": "\u52aa\u529b", "992": "\u53ca\u65f6", "993": "\u536b\u751f", "994": "\u56fd\u5185", "995": "\u66f4\u662f", "996": "\u51fa\u95e8", "997": "\u8fd9\u4e66", "998": "\u96be", "999": "\u4e66\u91cc", "1000": "\u8def", "1001": "\u53f8\u673a", "1002": "\u8bb0\u5f97", "1003": "\u7559\u4e0b", "1004": "\u968f\u4fbf", "1005": "LED", "1006": "\u52a0\u4e0a", "1007": "\u601d\u60f3", "1008": "\u7248", "1009": "\u6f06", "1010": "\u4e2d\u5fc3", "1011": "\u6210\u4e3a", "1012": "\u6781\u5dee", "1013": "\u7b11", "1014": "\u4e0b\u9762", "1015": "\u987e\u5ba2", "1016": "\uff0d", "1017": "\u5ea6", "1018": "\u610f\u4e49", "1019": "\u8d5e", "1020": "\u5904", "1021": "\u9001\u6765", "1022": "\u7cdf\u7cd5", "1023": "\u89d2\u5ea6", "1024": "\u7ed3\u5c40", "1025": "\u5750", "1026": "\u5947\u602a", "1027": "\u800c\u5df2", "1028": "\u53d1\u70ed\u91cf", "1029": "\u4f11\u606f", "1030": "\u5b58\u5728", "1031": "\u534a", "1032": "\u8fbe\u5230", "1033": "24", "1034": "200", "1035": "\u613f\u610f", "1036": "\u4e0d\u4ec5", "1037": "\u5c0f\u5de7", "1038": "\u804c\u573a", "1039": "\u6d41\u7545", "1040": "\u665a", "1041": "\u6309\u7167", "1042": "\u56e0\u6b64", "1043": "\u5e02\u4e2d\u5fc3", "1044": "\u641e\u5b9a", "1045": "\u4e00\u665a", "1046": "\u5b66", "1047": "\u4e00\u53e3\u6c14", "1048": "\u8f7b", "1049": "<", "1050": "\u9053", "1051": "\u5343\u4e07", "1052": "\u91cd\u91cf", "1053": "\u6d74\u7f38", "1054": "\u5e73\u65f6", "1055": "\u7b26\u5408", "1056": "\u62c5\u5fc3", "1057": "\u53d1\u7968", "1058": "\u5e02\u533a", "1059": "\u65e0\u8bba", "1060": "\u5404\u4f4d", "1061": "\u53cd\u5e94", "1062": "\u4eba\u5bb6", "1063": "\u5c0f\u670b\u53cb", "1064": "\u7a7a\u95f4", "1065": "\u534a\u4e2a", "1066": "\u9709\u5473", "1067": "\u4e0d\u65ad", "1068": "\u9a6c\u6876", "1069": "\u6211\u8981", "1070": "\u6dcb\u6d74", "1071": "25", "1072": "\u65f6\u5c1a", "1073": "\u5373\u4f7f", "1074": "\u7cbe\u7f8e", "1075": "\u773c\u775b", "1076": "\u6709\u8da3", "1077": "\u4e0a\u5f53", "1078": "\u56fe\u753b", "1079": "\u542c\u5230", "1080": "\u4ef7\u503c", "1081": "\u9519\u8bef", "1082": "\u6d17\u624b\u95f4", "1083": "\u53d6\u6d88", "1084": "\u73b0\u5b9e", "1085": "\u60f3\u8981", "1086": "\u5927\u5c0f", "1087": "\u9152\u5e97\u8bbe\u65bd", "1088": "\u8ba4\u771f", "1089": "\u679c\u7136", "1090": "\u8be2\u95ee", "1091": "..", "1092": "\u5065\u5eb7", "1093": "\u6b21", "1094": "\u5e8a\u4e0a", "1095": "\u4e48", "1096": "\u78b0\u5230", "1097": "\u60f3\u5230", "1098": "\u505c\u8f66", "1099": "\u6162\u6162", "1100": "\u4e00\u534a", "1101": "\u6574\u6d01", "1102": "\u5168", "1103": "\u65e9", "1104": "\u63d0\u9192", "1105": "\u6253\u7b97", "1106": "\u81ea\u52a9", "1107": "in", "1108": "\u534a\u591c", "1109": "\u8bf4\u8bdd", "1110": "\u6536\u85cf", "1111": "\u5f53\u5929", "1112": "\u4e0d\u503c", "1113": "\u8bfb\u4e66", "1114": "\u591f\u7528", "1115": "\u4e00\u697c", "1116": "\u53d8\u6210", "1117": "\u4e0d\u600e\u4e48\u6837", "1118": "50", "1119": "\u770b\u4e66", "1120": "\u987a\u5229", "1121": "\u5237\u5361", "1122": "\u7ecf\u8fc7", "1123": "\u9519", "1124": "\u6ca1\u6cd5", "1125": "\u4eae\u70b9", "1126": "\u7a81\u7136", "1127": "\u5230\u5e95", "1128": "\u8f7b\u677e", "1129": "\u660e\u660e", "1130": "\u4fbf\u5229", "1131": "check", "1132": "\u50cf\u662f", "1133": "\u4e0d\u4f4f", "1134": "\u611f\u60c5", "1135": "\u7814\u7a76", "1136": "\u76f8\u6bd4", "1137": "\u5145\u6ee1", "1138": "\u5509", "1139": "\u76f8\u5173", "1140": "\u542f\u52a8", "1141": "\u8f6c", "1142": "\u83dc", "1143": "\u505c\u8f66\u573a", "1144": "\u5f53\u5730", "1145": "\u6e05\u6670", "1146": "\u5e26\u6765", "1147": "\u540c\u5b66", "1148": "\u5468\u5230", "1149": "\u89c1", "1150": "\u6b63\u7248", "1151": "\u7c7b\u4f3c", "1152": "\u63cf\u5199", "1153": "\u9762\u5bf9", "1154": "\u6076\u5fc3", "1155": "\u7b49\u7b49", "1156": "\u9752\u5c9b", "1157": "\u8be6\u7ec6", "1158": "\u4fe1\u606f", "1159": "\u60f3\u6cd5", "1160": "\u624b\u7eed", "1161": "\u5149\u4e34", "1162": "\u624b", "1163": "\u5c31\u8981", "1164": "\u5374\u662f", "1165": "\u6b7b", "1166": "\u94a2\u7434", "1167": "\u5468\u8fb9", "1168": "\u5e2e\u5fd9", "1169": "\u5173\u6ce8", "1170": "\u8d60\u9001", "1171": "\u64cd\u4f5c", "1172": "\u63a7\u5236", "1173": "\u8d8a\u6765\u8d8a", "1174": "\u6109\u5feb", "1175": "\u5dee\u70b9", "1176": "\u697c\u4e0b", "1177": "\u6655", "1178": "\u56de\u590d", "1179": "\u70b9\u591a", "1180": "\u6b63\u597d", "1181": "\u5fc5\u8981", "1182": "\u5730\u70b9", "1183": "\u5e97", "1184": "\u7cbe\u5f69", "1185": "\u5355", "1186": "\u5730\u94c1", "1187": "\u7b80\u964b", "1188": "\u533a", "1189": "\u8fc7\u4e8e", "1190": "\u521a\u521a", "1191": "\u7ed3\u675f", "1192": "\u56fd\u9645", "1193": "\u4e09\u661f\u7ea7", "1194": "\u5f20\u7231\u73b2", "1195": "\u5927\u4eba", "1196": "40", "1197": "\u7b2c", "1198": "\u6211\u8ba2", "1199": "\u62e5\u6709", "1200": "\u6885\u62c9", "1201": "\u767b\u8bb0", "1202": "\u4e0d\u600e\u4e48", "1203": "\u5de5\u4f5c\u4eba\u5458", "1204": "\u5f88\u96be", "1205": "\u6709\u5173", "1206": "\u4e0d\u50cf", "1207": "\u7ecf\u9a8c", "1208": "\u6253\u626b", "1209": "\u540c", "1210": "\u4e0d\u9ad8", "1211": "\u5973", "1212": "\u4e00\u4efd", "1213": "\u601d\u8003", "1214": "\u8272\u5f69", "1215": "\u51e0\u9875", "1216": "\u56de\u5bb6", "1217": "\u5973\u5b69\u5b50", "1218": "\u9000\u8d27", "1219": "\u539f\u88c5", "1220": "\u6d3b\u52a8", "1221": "\u770b\u89c1", "1222": "\u589e\u52a0", "1223": "\u4ed4\u7ec6", "1224": "\u5c42", "1225": "\u7ed3\u8d26", "1226": "\u9a6c\u8def", "1227": "\u4ea7\u54c1", "1228": "\u6d88\u8d39", "1229": "\u9ed1\u8272", "1230": "\u7a33\u5b9a", "1231": "\u529e\u516c", "1232": "\u3000", "1233": "\u8d8a", "1234": "\u63cf\u8ff0", "1235": "\u90a3\u5929", "1236": "\u8f83\u5927", "1237": "\u5e74\u4ee3", "1238": "\u65c5\u6e38", "1239": "\u4e0b\u5355", "1240": "\u5168\u662f", "1241": "\u4e00\u70b9\u70b9", "1242": "\u5305\u62ec", "1243": "\u6c34\u51c6", "1244": "\u9762\u79ef", "1245": "\u82f1\u6587", "1246": "\u561b", "1247": "\u7f8e\u597d", "1248": "\u81ea\u6211", "1249": "\u7ecf\u6d4e", "1250": "\u4e4b\u7c7b", "1251": "\u7f8e\u56fd", "1252": "\u6015", "1253": "....", "1254": "\u5c3d\u7ba1", "1255": "\u5851\u6599", "1256": "\u505a\u5230", "1257": "\u81f3\u4e8e", "1258": "\u73a9\u6e38\u620f", "1259": "\u4e00\u751f", "1260": "\u4eba\u4eec", "1261": "\u4e00\u6bb5", "1262": "\u6302", "1263": "\u6863\u6b21", "1264": "\u964d\u4ef7", "1265": "\u9762", "1266": "\u6362\u623f", "1267": "\u5979\u4eec", "1268": "\u56de\u5230", "1269": "\u4e3b\u4eba\u516c", "1270": "\u901a\u77e5", "1271": "\u636e\u8bf4", "1272": "\u4e2d\u95f4", "1273": "\u5bfc\u81f4", "1274": "+", "1275": "\u54ea", "1276": "\u4f9d\u7136", "1277": "\u751f\u52a8", "1278": "\u5230\u624b", "1279": "\u5fc3", "1280": "\u6781\u5176", "1281": "\u4e0d\u518d", "1282": "\u4e00\u90e8", "1283": "\u4e0d\u5f97\u4e0d", "1284": "\u4eba\u6027\u5316", "1285": "\u9ad8\u5174", "1286": "\u6587\u7b14", "1287": "\u98de\u673a", "1288": "\u5f20", "1289": "\u52c9\u5f3a", "1290": "\u8868\u793a", "1291": "\u9760\u8fd1", "1292": "\u65e0\u5948", "1293": "\u6216\u8bb8", "1294": "\u5b66\u751f", "1295": "\u7eb8\u5f20", "1296": "\u6536\u83b7", "1297": "\u5c0f\u5b69\u5b50", "1298": "\u7a0d", "1299": "\u793c\u8c8c", "1300": "\u6211\u5bb6", "1301": "\u7834", "1302": "\u4e00\u4f1a", "1303": "\u5757\u94b1", "1304": "\u6b65\u884c", "1305": "\u8bba\u8bed", "1306": "\u4f53\u4f1a", "1307": "\u6d77\u666f\u623f", "1308": "\u518d\u4e5f", "1309": "\u53e3", "1310": "\u9ad8\u7ea7", "1311": "\u53d1\u5c55", "1312": "\u8868\u73b0", "1313": "\u5973\u6027", "1314": "\u5395\u6240", "1315": "\u72ec\u7acb", "1316": "\u6062\u590d", "1317": "\u70eb", "1318": "\u6362\u8d27", "1319": "HP", "1320": "\u7b2c\u4e8c\u6b21", "1321": "\u5bb6\u5177", "1322": "\u5bbd\u655e", "1323": "\u5185\u90e8", "1324": "\u552e\u540e", "1325": "\u7b49\u5f85", "1326": "\u5f00\u95e8", "1327": "`", "1328": "\u8eab\u4f53", "1329": "\u9910\u996e", "1330": "\u6c38\u8fdc", "1331": "\u64cd\u4f5c\u7cfb\u7edf", "1332": "\u5b8c\u6210", "1333": "\u5982\u5bb6", "1334": "13", "1335": "\u5f88\u68d2", "1336": "\u5bb6\u91cc", "1337": "\u6bd4\u8f83\u6ee1\u610f", "1338": "\u5fc3\u4e2d", "1339": "\u5bb6\u5ead", "1340": "\u7279\u4ef7", "1341": "\u7406\u7531", "1342": "\u63d0", "1343": "\u66f4\u6362", "1344": "\u7a0b\u5ea6", "1345": "\u522b", "1346": "\u4e0a\u6b21", "1347": "\u591a\u4e48", "1348": "\u6a21\u5f0f", "1349": "\u4e09", "1350": "\u603b\u7ed3", "1351": "\u7406\u60f3", "1352": "\u4e24\u6b21", "1353": "\u63d0\u524d", "1354": "\u8d85\u8fc7", "1355": "\u6298\u817e", "1356": "\u60f3\u60f3", "1357": "\u9020\u6210", "1358": "BIOS", "1359": "17", "1360": "\u7c73", "1361": "\u5fd8", "1362": "\u4ee5\u4e0b", "1363": "\u4e0d\u5408\u7406", "1364": "\u89c1\u5230", "1365": "\u800c\u8a00", "1366": "\u5230\u8d27", "1367": "\u4ea4\u6d89", "1368": "\u5177\u4f53", "1369": "\u5389\u5bb3", "1370": "\u4e66\u4e0a", "1371": "\u54ce", "1372": "\u6c9f\u901a", "1373": "183", "1374": "\u53ef\u601c", "1375": "\u539a", "1376": "\u4f4f\u5e97", "1377": "\u4ece\u6765", "1378": "\u5173\u952e", "1379": "\u65f6\u4ee3", "1380": "\u60e0\u666e", "1381": "\u5c01\u9762", "1382": "\u719f\u6089", "1383": "\u6b23\u8d4f", "1384": "\u8bf4\u5b9e\u8bdd", "1385": "\u53f0", "1386": "\u8d34", "1387": "\u9000", "1388": "18", "1389": "\u884c\u4e3a", "1390": "\u6709\u5f85", "1391": "\u6628\u5929", "1392": "\u81ea\u7136", "1393": "\u6765\u8bb2", "1394": "\u724c\u5b50", "1395": "\u5ba3\u4f20", "1396": "\u51cc\u6668", "1397": "\u4e0a\u6765", "1398": "\u6709\u6ca1\u6709", "1399": "\u65e9\u5c31", "1400": "\u6700\u7ec8", "1401": "\u8fd9\u90e8", "1402": "\u8868\u9762", "1403": "\u6709\u79cd", "1404": "\u52a8\u7269", "1405": "\u8fd9\u6b3e", "1406": "\u63a5\u89e6", "1407": "\u600e\u4e48\u6837", "1408": "\u89c4\u5b9a", "1409": "\u504f", "1410": "\u4e24\u672c", "1411": "\u7ed9\u4e88", "1412": "\u5168\u9762", "1413": "\u4e2d\u533b", "1414": "\u75db\u82e6", "1415": "^", "1416": "\u62d6\u978b", "1417": "\u5e7d\u9ed8", "1418": "\u8ffd\u6c42", "1419": "\u4f4f\u5bbf", "1420": "\u91cd\u590d", "1421": "\u4e0d\u53ef", "1422": "\u8010\u5fc3", "1423": "\u8863\u670d", "1424": "\u6ee1", "1425": "\u4e71", "1426": "\u7f8e\u4e3d", "1427": "\u5927\u7ea6", "1428": "\u667a\u6167", "1429": "\u7269\u6d41", "1430": "\u8868\u8fbe", "1431": "\u590d\u6742", "1432": "\u73b0\u8c61", "1433": "\u4e5f\u597d", "1434": "\u6839\u636e", "1435": "\u5f88\u810f", "1436": "\u5237", "1437": "\u7531", "1438": "\u9053\u6b49", "1439": "\u6709\u65f6\u5019", "1440": "\u53d8\u5f97", "1441": "\u4fbf", "1442": "\u5408\u4f5c", "1443": "\u8d85", "1444": "\u4f8b\u5b50", "1445": "\u5f3a\u70c8", "1446": "\u5730\u6bb5", "1447": "\u9700", "1448": "\u7528\u6237", "1449": "\u56fd\u5bb6", "1450": "\u6587\u5b66", "1451": "\u63d0\u5230", "1452": "\u4ecd", "1453": "\u8d85\u5e02", "1454": "\u534a\u5c0f\u65f6", "1455": "\u6362\u6210", "1456": "\u5b89\u5168", "1457": "\u5e74\u9f84", "1458": "\u4f3c\u7684", "1459": "\u653e\u5fc3", "1460": "\u8fbe", "1461": "\u4fdd\u8bc1", "1462": "\u624b\u673a", "1463": "\u53c2\u8003", "1464": "\u4e0d\u7136", "1465": "\u4e2a\u4eba\u611f\u89c9", "1466": "\u5dee\u8ddd", "1467": "\u9526\u6c5f", "1468": "linux", "1469": "\u52a0\u5f3a", "1470": "\u4ea7\u751f", "1471": "\u623f\u9593", "1472": "_", "1473": "\u5934", "1474": "\u6c14\u6124", "1475": "\u54ed", "1476": "\u4fdd\u6301", "1477": "\uff10", "1478": "\u7cbe\u795e", "1479": "\u4e39", "1480": "\u7eb8", "1481": "\u8bb0\u5fc6", "1482": "\u6539", "1483": "\u4e0d\u4fbf", "1484": "\u5bbd", "1485": "IBM", "1486": "\u4e00\u6d41", "1487": "\u539f\u672c", "1488": "22", "1489": "\u6050\u6016", "1490": "\u4e4b\u4e00", "1491": "\u62c9", "1492": "\u5c0a\u656c", "1493": "\u4ecd\u7136", "1494": "\u6bd4\u8d77", "1495": "\u4e0a\u5348", "1496": "\u54c1\u8d28", "1497": "\u5c1d\u8bd5", "1498": "\u975e", "1499": "\u9ed1", "1500": "\u53cd\u800c", "1501": "\u4e00\u4e2a\u6708", "1502": "\u6309\u952e", "1503": "\u9700\u6c42", "1504": "\u65b0\u88c5\u4fee", "1505": "\u5b66\u4f1a", "1506": "\u4e00\u53f0", "1507": "\u5f62\u8c61", "1508": "\u7f8e", "1509": "\u65e9\u996d", "1510": "\u7ec6\u817b", "1511": "\uff11", "1512": "\u5927\u5b66", "1513": "\u7c97\u7cd9", "1514": "\u670d\u52a1\u8d28\u91cf", "1515": "\u6709\u6240", "1516": "\u8c8c\u4f3c", "1517": "\u7528\u5fc3", "1518": "\u70df\u5473", "1519": "\u5168\u65b0", "1520": "\u8bfb\u8fc7", "1521": "\u4f18\u79c0", "1522": "\u8eab\u4e0a", "1523": "\u914d", "1524": "\u65e0\u8bba\u662f", "1525": "\u4f18\u60e0", "1526": "\u5927\u90e8\u5206", "1527": "\u8ba2\u623f", "1528": "\u753b", "1529": "\u8fb9\u4e0a", "1530": "\u63d2\u56fe", "1531": "\u53d7\u5230", "1532": "\u72ec\u663e", "1533": "\u7f3a\u4e4f", "1534": "\u7535\u89c6\u673a", "1535": "\u675c", "1536": "\u5ea6\u5047", "1537": "\u968f\u673a", "1538": "\u4e2a\u6027", "1539": "\u7b2c\u4e00\u5929", "1540": "\u6e38\u6cf3\u6c60", "1541": "\u65e5\u5e38", "1542": "\u56fe\u4e66", "1543": "\u5bfb\u627e", "1544": "\u559d", "1545": "00", "1546": "\u6709\u7740", "1547": "\u611f\u5174\u8da3", "1548": "\u57f9\u517b", "1549": "\u82af", "1550": "\u94f6\u884c", "1551": "\u76f4\u5230", "1552": "\u7f51\u53cb", "1553": "\u5ba2\u89c2", "1554": "\u952e", "1555": "\u6539\u5584", "1556": "\u786c", "1557": "\u767d\u5929", "1558": "\u65e0\u70df", "1559": "\u5927\u5385", "1560": "\u7528\u6765", "1561": "--", "1562": "\u592a\u8d35", "1563": "\u6709\u610f\u601d", "1564": "\u957f\u65f6\u95f4", "1565": "\u4e13\u95e8", "1566": "\u4e22", "1567": "\u5546\u573a", "1568": "\u51fa\u7248\u793e", "1569": "\u97e9\u56fd", "1570": "\u4e00\u53ea", "1571": "\u673a", "1572": "\u63d0\u5347", "1573": "\u8001\u516c", "1574": "\u4e0d\u8fdc", "1575": "\u4f18\u52bf", "1576": "300", "1577": "\u9ad8\u6e05", "1578": "\u6309\u6469", "1579": "\u6388\u6743", "1580": "\u54ea\u4e2a", "1581": "\u6027\u683c", "1582": "\u6b63\u662f", "1583": "\u57fa\u7840", "1584": "\u6d4b\u8bd5", "1585": "\u63d0\u793a", "1586": "\u89c2\u5ff5", "1587": "\u8001\u677f", "1588": "\u5f3a\u5927", "1589": "\u9488\u5bf9", "1590": "\u60a8\u597d", "1591": "\u5dee\u52b2", "1592": "\u8fde\u7eed", "1593": "\u7238\u7238", "1594": "\u6240\u8bf4", "1595": "\u82b1\u56ed", "1596": "\u770b\u4e0a\u53bb", "1597": "\u868a\u5b50", "1598": "\u91cd\u88c5", "1599": "\u58f0\u5361", "1600": "\u53f7\u79f0", "1601": "\u4e66\u5199", "1602": "23", "1603": "\u5468\u56f4\u73af\u5883", "1604": "\u697c\u4e0a", "1605": "com", "1606": "\u7559", "1607": "\u76f8\u5dee", "1608": "\u4eba\u7c7b", "1609": "\u5730\u94c1\u7ad9", "1610": "\u4ee4", "1611": "\u56de\u53bb", "1612": "\u53d7\u76ca\u532a\u6d45", "1613": "\u6545\u4e8b\u60c5\u8282", "1614": "thinkpad", "1615": "\u5f02\u5473", "1616": "\u5206\u6790", "1617": "\u7b49\u5230", "1618": "\u57f9\u8bad", "1619": "\u51fa\u7248", "1620": "\u6682\u65f6", "1621": "\u542f\u53d1", "1622": "\u5b8c\u540e", "1623": "\u623f\u578b", "1624": "\u70c2", "1625": "\u706f", "1626": "\u6700\u9ad8", "1627": "\u62b1", "1628": "\u7231\u4e0d\u91ca\u624b", "1629": "\u5230\u5904", "1630": "\u8fb9", "1631": "\u59cb\u7ec8", "1632": "\u4e09\u5929", "1633": "500", "1634": "\u8584", "1635": "\u547d\u8fd0", "1636": "\u7a7a\u6c14", "1637": "\u4f4f\u5ba2", "1638": "\u4e00\u4e0b\u5b50", "1639": "\u68a6\u60f3", "1640": "\u72b6\u6001", "1641": "\u8c03\u6574", "1642": "\u5c0f\u5fc3", "1643": "\u529e", "1644": "\u4e00\u4ef6", "1645": "A", "1646": "\u597d\u8bc4", "1647": "\u6ca1\u6536", "1648": "\u592a\u5927", "1649": "27", "1650": "\u7f51\u7ebf", "1651": "80", "1652": "\u7092\u4f5c", "1653": "\u6709\u7528", "1654": "\u7279\u70b9", "1655": "\u5747", "1656": "\u65e2", "1657": "\u7b54\u590d", "1658": "\u4e66\u5e97", "1659": "\u4e00\u7bc7", "1660": "\u4e00\u822c\u822c", "1661": "\u5728\u4e8e", "1662": "\u5bbe\u5ba2", "1663": "\u5a31\u4e50", "1664": "\u7d20\u8d28", "1665": "\u53d8\u5316", "1666": "\u73bb\u7483", "1667": "\u6a21\u5177", "1668": "\u5219", "1669": "\u4e00\u6bb5\u65f6\u95f4", "1670": "\u81ea\u52a9\u9910", "1671": "\u6211\u4f1a", "1672": "\u6d17", "1673": "\u6e29\u6cc9", "1674": "\u7b80\u6d01", "1675": "\u7a97\u5916", "1676": "\u51fa\u884c", "1677": "\u591a\u5e74", "1678": "\u6b63", "1679": "\u62bc\u91d1", "1680": "\u4ed8\u6b3e", "1681": "\u666f\u70b9", "1682": "\u867d", "1683": "\u62ff\u6765", "1684": "\u5ffd\u60a0", "1685": "\u6bcd\u4eb2", "1686": "\u53cd\u590d", "1687": "\u8c03", "1688": "\u662f\u4ece", "1689": "\u5e02\u573a", "1690": "\u6e29\u6696", "1691": "\u4f53\u73b0", "1692": "\u516c\u5e73", "1693": "\u5b57\u4f53", "1694": "\u5927\u53a6", "1695": "\u623f\u5361", "1696": "cpu", "1697": "\u5f00\u8f66", "1698": "\u5185\u5fc3", "1699": "\u6d77\u8fb9", "1700": "\u5185\u80c6", "1701": "\u7ed3\u5408", "1702": "\u6279\u8bc4", "1703": "\u7f18\u6545", "1704": "\u592a\u9ad8", "1705": "\u7528\u54c1", "1706": "\u597d\u5904", "1707": "\u8d76\u4e0a", "1708": "\u8eba", "1709": "\u503c", "1710": "\u4ef7\u683c\u4fbf\u5b9c", "1711": "21", "1712": "\u98ce\u666f", "1713": "\u66f4\u65b0", "1714": "\u7406\u5ff5", "1715": "OK", "1716": "\u4e0d\u80af", "1717": "\u5b66\u6821", "1718": "\u5e7f\u573a", "1719": "\u5178\u578b", "1720": "\u8bb0", "1721": "\u9a9a\u6270\u7535\u8bdd", "1722": "\u5e08", "1723": "\u8d60\u54c1", "1724": "\u4ea6", "1725": "\u4e8c\u697c", "1726": "\u60ca\u559c", "1727": "\u6548\u7387", "1728": "\u6ca1\u7528", "1729": "\u65c5\u9986", "1730": "\u540c\u610f", "1731": "\u4f5c\u5bb6", "1732": "\u8f7b\u4fbf", "1733": "\u533a\u522b", "1734": "\u795e\u5947", "1735": "\u7d27\u5f20", "1736": "\u89c6\u9891", "1737": "\u7ffb\u5f00", "1738": "\u4f69\u670d", "1739": "\u4e0d\u8ba9", "1740": "ctrip", "1741": "\u7167\u7247", "1742": "\u6b63\u786e", "1743": "\u7e41\u534e", "1744": "\u5973\u5b69", "1745": "\u624b\u91cc", "1746": "\u7269\u6709\u6240\u503c", "1747": "\u67e5", "1748": "\u8f83\u5dee", "1749": "\u5f62\u5bb9", "1750": "\u81ea\u52a8", "1751": "\uff02", "1752": "\u5b9d\u8d35\u610f\u89c1", "1753": "\u7b2c\u4e8c", "1754": "\u7f3a\u8d27", "1755": "\u8d39", "1756": "\u63a5\u673a", "1757": "\u8868\u626c", "1758": "\u4e24", "1759": "\u5fd8\u8bb0", "1760": "\u8bef\u5bfc", "1761": "\u4e0d\u505c", "1762": "\u4e00\u5171", "1763": "\u684c\u5b50", "1764": "\u68c0\u67e5", "1765": "\u8d39\u7528", "1766": "\u4f1a\u5458", "1767": "\u6c34\u9f99\u5934", "1768": "\u9002\u5e94", "1769": "\u8ddf\u7740", "1770": "\u5177\u6709", "1771": "\u4e3b\u6d41", "1772": "\u623f\u5b50", "1773": "\u5e7f\u5dde", "1774": "\u592a\u591a", "1775": "\u97f3\u8d28", "1776": "\u643a\u7a0b\u7f51", "1777": "\u4fdd\u62a4", "1778": "\u53d1\u51fa", "1779": "\u5916\u5f62", "1780": "\u4f20\u7edf", "1781": "\u60c5\u611f", "1782": "\u672c\u5b50", "1783": "\u81ea\u7531", "1784": "\u771f\u8bda", "1785": "\u5fc3\u7075", "1786": "\u867d\u8bf4", "1787": "\u8d44\u6599", "1788": "\u63a5\u7740", "1789": "\u5173", "1790": "\u6559\u6750", "1791": "\u5c1a\u53ef", "1792": "26", "1793": "28", "1794": "\u5546\u54c1", "1795": "\u8d1f\u8d23", "1796": "\u4eba\u6027", "1797": "\u5355\u4eba\u95f4", "1798": "\u7269\u54c1", "1799": "\u98df\u54c1", "1800": "\u63a5", "1801": "\u5f80", "1802": "\u5927\u591a\u6570", "1803": "\u54cd", "1804": "\u4eb2\u5207", "1805": "\u7f51\u901f", "1806": "\u8bb2\u8ff0", "1807": "\u65e9\u6668", "1808": "\u6076\u52a3", "1809": "\u968f\u7740", "1810": "\u56de\u5fc6", "1811": "\u826f\u597d", "1812": "\u8fd8\u884c", "1813": "N", "1814": "\u77ed", "1815": "\u4e0d\u5927", "1816": "\u964d", "1817": "\u957f\u5927", "1818": "\u627f\u8ba4", "1819": "\u4e3b\u9898", "1820": "\u4f5c\u7528", "1821": "\u8fd0\u6c14", "1822": "\u53d7\u4e0d\u4e86", "1823": "\u516c\u5bd3", "1824": "\u5e03\u5c40", "1825": "\u96be\u5f97", "1826": "\u6c42\u533b", "1827": "\u8fd9\u65b9\u9762", "1828": "\u529e\u4e8b", "1829": "\u8bf4\u660e\u4e66", "1830": "\u5494", "1831": "\u4f4d\u4e8e", "1832": "\u8def\u4e0a", "1833": "\u5929\u6c14", "1834": "\u68d2", "1835": "\u8fd9\u5957", "1836": "\u592a\u65e7", "1837": "\u76d7\u7248", "1838": "\u4e66\u672c", "1839": "\u6574\u672c\u4e66", "1840": "\u6254", "1841": "\u4f5c", "1842": "\u96be\u4ee5", "1843": "\u7ec6\u81f4", "1844": "\u4e0b\u697c", "1845": "\u65e2\u7136", "1846": "\u5927\u5e08", "1847": "\u6539\u6210", "1848": "\u4fdd\u5b89", "1849": "\u63a5\u5230", "1850": "\u5fcd\u53d7", "1851": "\u4e2d\u9910\u5385", "1852": "\u81f3\u4eca", "1853": "\u8be5\u4e66", "1854": "\u600e\u4e48\u56de\u4e8b", "1855": "\u4e0d\u7b26", "1856": "\u7ae5\u5e74", "1857": "\u4ef7\u683c\u6bd4", "1858": "\u5f85\u673a\u65f6\u95f4", "1859": "\u5fd9", "1860": "\u4e0d\u6562\u606d\u7ef4", "1861": "\u81ea\u63d0", "1862": "\u5bf9\u5f97\u8d77", "1863": "\u5bb6\u4eba", "1864": "\u8bf4\u597d", "1865": "\u5927\u91cf", "1866": "\u56fe", "1867": "\u82e5", "1868": "\u8001\u5a46", "1869": "\u4f53\u9a8c", "1870": "\u5343\u4e07\u522b", "1871": "\u5747\u8861", "1872": "\u52c7\u6562", "1873": "\u4e3b\u89d2", "1874": "\u591a\u4eba", "1875": "\u56f0\u96be", "1876": "\u8d70\u8def", "1877": "\u67d0\u4e9b", "1878": "\u65e0\u6240\u8c13", "1879": "\u5973\u5b50", "1880": "the", "1881": "\u5c0f\u65f6\u5019", "1882": "\u8d77\u7801", "1883": "\u7533\u8bf7", "1884": "\u9519\u8fc7", "1885": "DVD", "1886": "\u81f3", "1887": "19", "1888": "\u5b9e\u73b0", "1889": "\u7eaf\u7cb9", "1890": "\u804a\u5929", "1891": "\u7528\u9910", "1892": "\u98df\u7269", "1893": "\u574f\u70b9", "1894": "\u6536\u62fe", "1895": "\u91cd\u89c6", "1896": "\u4ece\u4e2d", "1897": "\u968f\u65f6", "1898": "\u84dd\u5c4f", "1899": "\u4e00\u6b3e", "1900": "\u7f51\u9875", "1901": "\u4ec5", "1902": "\u5f15\u5bfc", "1903": "\u8bfb\u7269", "1904": "\u4e00\u8bfb", "1905": "\u5355\u95f4", "1906": "\u533b\u9662", "1907": "\u8001\u5916", "1908": "\u5bb3", "1909": "\u5b9e\u9645\u4e0a", "1910": "\u6d3b\u7740", "1911": "31", "1912": "\u611f", "1913": "\u53f7\u697c", "1914": "LINUX", "1915": "\u5b9d\u8d1d", "1916": "\u5bf9\u65b9", "1917": "\u7535\u6e90\u9002\u914d\u5668", "1918": "\u643a\u5e26", "1919": "\u5b98\u7f51", "1920": "\u8981\u547d", "1921": "\u4e00\u591c", "1922": "\u955c\u9762", "1923": "\u4e00\u9875", "1924": "\u6df1\u5ea6", "1925": "\u51b2\u7740", "1926": "\u81ea", "1927": "\u5f53\u521d", "1928": ".....", "1929": "\u6696\u6c14", "1930": "out", "1931": "\u6c14", "1932": "\u7701", "1933": "\u6740\u6bd2\u8f6f\u4ef6", "1934": "\u5bf9\u5f85", "1935": "\u5176\u6b21", "1936": "\u7f62\u4e86", "1937": "\u53a6\u95e8", "1938": "IDE", "1939": "\u601d\u7ef4", "1940": "\u592a\u8fdc", "1941": "\u7a81\u51fa", "1942": "\u672a\u6765", "1943": "\u5fc3\u6001", "1944": "\u4f01\u4e1a", "1945": "\u4e00\u6b21\u6027", "1946": "\u4fdd\u7559", "1947": "\u4fee", "1948": "\u65b9\u5411", "1949": "\u7a7f\u8d8a", "1950": "\u6e05\u6d01", "1951": "\u5f00\u5173", "1952": "\u8d39\u52b2", "1953": "\u4e00\u5e74", "1954": "\u8981\u4e48", "1955": "\u5fc3\u5f97", "1956": "\u5dee\u5f02", "1957": "\u5b8c\u6574", "1958": "\u4e2d\u6587", "1959": "\u59b9\u59b9", "1960": "\u653e\u5f03", "1961": "\u54a8\u8be2", "1962": "\u73b0\u4ee3", "1963": "\u7f3a\u5c11", "1964": "\u793c\u7269", "1965": "\u7ffb\u770b", "1966": "\u6570\u5b66", "1967": "800", "1968": "\u5206\u4eab", "1969": "\u5bf9\u4e0d\u8d77", "1970": "\u526f\u7406", "1971": "\u706b\u8f66", "1972": "\u79d1\u5b66", "1973": "\u633a\u5feb", "1974": "\u4e66\u540e", "1975": "\u641e\u7b11", "1976": "\u8ba8\u538c", "1977": "\u5bf9\u8bdd", "1978": "\u61c2\u5f97", "1979": "\u4e8b\u5148", "1980": "\u4e00\u9762", "1981": "\u5df4\u58eb", "1982": "\u7f8e\u4e2d\u4e0d\u8db3", "1983": "\u5927\u65b9", "1984": "\u90e8\u95e8", "1985": "\u5e7c\u513f\u56ed", "1986": "\u8005", "1987": "\u6c14\u5473", "1988": "\u4e00\u5757", "1989": "\u9002\u4e2d", "1990": "\u6d88\u8d39\u8005", "1991": "\u53ef\u6015", "1992": "\u5076\u5c14", "1993": "\u4e2d\u592e\u7a7a\u8c03", "1994": "\u673a\u8eab", "1995": "\u5c0f\u5b66", "1996": "\u6807\u623f", "1997": "\u5587\u53ed", "1998": "\u5730\u5740", "1999": "\u6ca1\u89c1", "2000": "\u7ef4\u4fee", "2001": "\u611f\u5192", "2002": "\u4e66\u540d", "2003": "\u4f24\u5fc3", "2004": "\u5938\u5f20", "2005": "\u518d\u4e5f\u4e0d\u4f1a", "2006": "\u6b3a\u9a97", "2007": "\u90e8", "2008": "\u94a2\u7434\u6f06", "2009": "\u5929\u5929", "2010": "\u7f51", "2011": "\u706f\u5149", "2012": "\u7b54\u6848", "2013": "\u597d\u5403", "2014": "\u5fcd\u4e0d\u4f4f", "2015": "\u4eca\u540e", "2016": "\u5927\u591a", "2017": "\u5e94", "2018": "\u4e0a\u53bb", "2019": "\u4e4b\u5916", "2020": "\u8fdb\u95e8", "2021": "\u5730\u4e0a", "2022": "\u4e0d\u5f97\u4e86", "2023": "\u53d1\u9709", "2024": "\u501f\u9274", "2025": "\u6ca1\u5f97\u8bf4", "2026": "\u80cc\u666f", "2027": "\u5e95\u90e8", "2028": "\u54c8", "2029": "C\u76d8", "2030": "\u5916\u56fd", "2031": "\u81ea\u8eab", "2032": "\u4e8b\u4ef6", "2033": "\u600e\u4e48\u529e", "2034": "400", "2035": "\u52a8\u4f5c", "2036": "\u751f\u6c14", "2037": "\u97f3\u7bb1", "2038": "\u914d\u5408", "2039": "\u4eae\u5ea6", "2040": "\u5973\u751f", "2041": "\u6f2b\u753b", "2042": "\u5f62\u5f0f", "2043": "\u6df1\u5733", "2044": "\u53cc\u6838", "2045": "\u521a\u4e70", "2046": "\u5373", "2047": "\u6211\u7528", "2048": "\u63a5\u8fd1", "2049": "\u4e0d\u53bb", "2050": "\u53d7", "2051": "\u4e8c", "2052": "\u5f88\u5f3a", "2053": "\u65bd\u5de5", "2054": "\u4e0d\u89c1", "2055": "\u7a74\u4f4d", "2056": "\u8c03\u8282", "2057": "\u642d\u914d", "2058": "\u610f\u5916", "2059": "\u7535\u89c6\u5267", "2060": "\u67e5\u623f", "2061": "\u6280\u672f", "2062": "\u5de6\u8fb9", "2063": "\u597d\u5947", "2064": "\u5357\u4eac", "2065": "\u9999\u683c\u91cc\u62c9", "2066": "\u5730\u677f", "2067": "\u7537", "2068": "\u7ade\u4e89\u529b", "2069": "\u8ba2\u8d2d", "2070": "\u5199\u5f97", "2071": "\u5b9a\u5355", "2072": "\u5468\u672b", "2073": "\u53bb\u8fc7", "2074": "\u6beb\u65e0", "2075": "\u4ec0\u4e48\u6837", "2076": "\u505c", "2077": "\u8bf4\u6cd5", "2078": "\u8bc4\u5206", "2079": "\u7537\u5973", "2080": "\u53d1", "2081": "\u4f20\u8bf4", "2082": "\u6536\u8d27", "2083": "\u9001\u9910", "2084": "\u5f3a\u70c8\u63a8\u8350", "2085": "\u7a7f", "2086": "\u4e00\u5468", "2087": "\u62d2\u7edd", "2088": "\u5907\u4efd", "2089": "250G", "2090": "\u5b9d\u8d35", "2091": "\u4fe1\u53f7", "2092": "\u8001\u65e7", "2093": "\u8d76\u7d27", "2094": "\u503c\u5f97\u4e00\u770b", "2095": "\u51b0\u7bb1", "2096": "\u770b\u6cd5", "2097": "\u60f3\u8d77", "2098": "\u76f8\u540c", "2099": "\u4f4d", "2100": "\u4ee3\u7406", "2101": "\u76d6", "2102": "\u4e00\u5c42", "2103": "\u4e0a\u4e0b", "2104": "\u627f\u8bfa", "2105": "\u4e0d\u5e26", "2106": "\u65e0\u6bd4", "2107": "\u5e26\u7ed9", "2108": "\u706b", "2109": "\u4e0d\u8bf4", "2110": "\u6d74\u5dfe", "2111": "\u540c\u7c7b", "2112": "\u80a4\u6d45", "2113": "\u7c7b", "2114": "\u521a\u597d", "2115": "\u505a\u6cd5", "2116": "\u56fd\u5916", "2117": "\u5973\u58eb", "2118": "\u5fc3\u7406\u5b66", "2119": "\u8d2d\u4e66", "2120": "\u6216\u662f", "2121": "\u97f3\u4e50", "2122": "SATA", "2123": "\u6fa1", "2124": "\u9500\u552e", "2125": "\u4e34\u65f6", "2126": "\u914d\u5957", "2127": "\u6d89\u53ca", "2128": "\u8d76", "2129": "\u67f3\u5dde", "2130": "\u533b\u751f", "2131": "\u6b22\u8fce\u60a8", "2132": "\u771f\u4e0d\u77e5\u9053", "2133": "\u5957\u9910", "2134": "\u5f80\u5f80", "2135": "\u7cfb\u7edf\u76d8", "2136": "\uff12", "2137": "\u7ed3\u6784", "2138": "\u53d9\u8ff0", "2139": "\u5199\u4f5c", "2140": "\u4e8b\u5b9e", "2141": "\u8f71\u8f98", "2142": "\u8981\u4e0d\u662f", "2143": "\u5c0f\u9ed1", "2144": "\u51e0\u672c", "2145": "\u5927\u8fde", "2146": "\u663e\u793a\u5c4f", "2147": "\u70ed\u95f9", "2148": "\u6ce8\u518c", "2149": "\u90a3\u4f4d", "2150": "\u7ea6", "2151": "\u8d23\u4efb", "2152": "\u53bb\u5e74", "2153": "\u7ae0\u8282", "2154": "\u65b0\u9c9c", "2155": "\u5c0f\u5c0f\u7684", "2156": "\u4e3a\u4f55", "2157": "\u6c57", "2158": "\u4e1c\u4e1c", "2159": "\u9610\u8ff0", "2160": "\u513f\u7ae5", "2161": "\u6253\u5b57", "2162": "\u8d28\u611f", "2163": "\u5916\u51fa", "2164": "\u5927\u6d77", "2165": "\u534f\u8bae", "2166": "\u6025", "2167": "\u53ef\u89c1", "2168": "\u64ad\u653e", "2169": "\u4e00\u4f1a\u513f", "2170": "\u5185\u5b58\u6761", "2171": "\u7adf", "2172": "\u4ee5\u6765", "2173": "\u2018", "2174": "\u5931\u53bb", "2175": "\u72b6\u51b5", "2176": "\u6559\u6388", "2177": "\u5c06\u8fd1", "2178": "\u6ca1\u5230", "2179": "\u62c5\u4fdd", "2180": "\u4ed8", "2181": "\u68c0\u6d4b", "2182": "\u592a\u4f4e", "2183": "\u770b\u540e", "2184": "\u503c\u73ed", "2185": "\u8fdb\u6765", "2186": "\u2229", "2187": "\u5feb\u6377\u952e", "2188": "\u653e\u4e0b", "2189": "\u9e21\u86cb", "2190": "\u725b", "2191": "\u6392\u7248", "2192": "\u5165\u7761", "2193": "\u803d\u8bef", "2194": "\u88c5\u4e0a", "2195": "\u7acb\u523b", "2196": "\u6dcb\u6d74\u623f", "2197": "29", "2198": "\u5c0f\u5f97", "2199": "\u6c99\u53d1", "2200": "\u529b\u91cf", "2201": "\u83b7\u5f97", "2202": "\u6f0f\u6c34", "2203": "\u7acb\u5373", "2204": "\u91c7\u7528", "2205": "\u914d\u4ef6", "2206": "\u9644\u5e26", "2207": "\u6717\u8bfb", "2208": "\u897f\u9910\u5385", "2209": "\u7a0b\u5e8f", "2210": "\u633a\u4e0d\u9519", "2211": "\u62b1\u6028", "2212": "\u5347\u804c", "2213": "\u58f0", "2214": "\u9020\u578b", "2215": "\u6280\u5de7", "2216": "\u6b22\u8fce", "2217": "\u65e0\u804a", "2218": "\u5931\u8d25", "2219": "\u51e0\u5e74", "2220": "\u5b66\u5230", "2221": "\u6b20", "2222": "\u2019", "2223": "\u5e38\u5e38", "2224": "\u8bfb\u5361\u5668", "2225": "\u4ed8\u51fa", "2226": "\u6df1\u8868\u6b49\u610f", "2227": "\u623f\u95e8", "2228": "\u518d\u4f4f", "2229": "\u966a", "2230": "\u7ca5", "2231": "\u5e74\u8f7b", "2232": "\u4e00\u4e2a\u4e2a", "2233": "\u5927\u5df4", "2234": "\u7ffb\u9605", "2235": "B", "2236": "\u666f\u8272", "2237": "\u5efa\u7b51", "2238": "\u8fd0\u7528", "2239": "\u73cd\u60dc", "2240": "\u5bf9\u6b64", "2241": "\u6210\u672c", "2242": "'", "2243": "\u5468\u8fb9\u73af\u5883", "2244": "\u7279", "2245": "\u542b", "2246": "\u5c31\u8ba9", "2247": "\u8fde\u63a5", "2248": "\u7136\u800c", "2249": "\u6559", "2250": "\u5e84\u5b50", "2251": "\u4eca\u5e74", "2252": "\u4e24\u4eba", "2253": "\u661f\u671f", "2254": "\u603b\u7b97", "2255": "\u7a7a\u6d1e", "2256": "\u7b2c\u4e00\u4e2a", "2257": "\u5927\u4f17", "2258": "\u62cd", "2259": "\u5144\u5f1f", "2260": "\u5927\u95e8", "2261": "\u5f0f", "2262": "\u9ea6\u514b\u98ce", "2263": "\u6d77", "2264": "\u65e5\u5e38\u751f\u6d3b", "2265": "\u504f\u9ad8", "2266": "\u8df3", "2267": "\u5404\u4e2a", "2268": "\u8303\u56f4", "2269": "\u5fae\u7b11", "2270": "\u5c3d\u91cf", "2271": "\u57ce", "2272": "\u5e03\u7f6e", "2273": "\u6e38\u5ba2", "2274": "\u70eb\u624b", "2275": "\u8bb2\u89e3", "2276": "\u7535", "2277": "\u4eba\u4f4f", "2278": "\u8ba4\u540c", "2279": "2000", "2280": "\u62b1\u6b49", "2281": "\u6795\u5934", "2282": "\u663e\u7136", "2283": "\u573a\u666f", "2284": "\u8fb9\u6846", "2285": "\u638c\u63e1", "2286": "\u53ea\u4f1a", "2287": "\u6b64\u4e8b", "2288": "\u6b63\u5982", "2289": "\u4eff\u4f5b", "2290": "\u5bb6\u7528", "2291": "\u4e4b\u661f", "2292": "\u6562", "2293": "\u670d\u52a1\u6c34\u5e73", "2294": "\u89e3\u51b3\u95ee\u9898", "2295": "\u53e3\u5473", "2296": "\u8d34\u7eb8", "2297": "\u56db\u4e2a", "2298": "\u6df1\u6df1", "2299": "\u89c6\u89d2", "2300": "\u4fe1\u4efb", "2301": "\u81f4\u7535", "2302": "\u723d", "2303": "\u7f8e\u89c2", "2304": "\u6302\u724c", "2305": "\u7b97\u4e86", "2306": "\u50ac", "2307": "\u6df1", "2308": "\u4e3b\u677f", "2309": "\u5750\u5728", "2310": "\u5206\u8fa8\u7387", "2311": "\u4e70\u4e0b", "2312": "\u5360", "2313": "\u73b0\u91d1", "2314": "\u5c0f\u5403", "2315": "\u8bfb\u8bfb", "2316": "\u505a\u4e8b", "2317": "\u5f3a\u52b2", "2318": "06", "2319": "\u8457\u4f5c", "2320": "\u7b11\u5bb9", "2321": "\u5176\u4f59", "2322": "\u548b", "2323": "\u52c7\u6c14", "2324": "\u7ebf", "2325": "\u578b", "2326": "\u5e73\u51e1", "2327": "\u505a\u597d", "2328": "\u751f", "2329": "\u8010\u7528", "2330": "\u51b2\u52a8", "2331": "\u8fd8\u7ed9", "2332": "\u725b\u5976", "2333": "\u5e74\u7eaa", "2334": "\u63d2", "2335": "\u5e8a\u57ab", "2336": "\u8bb0\u5f55", "2337": "\u5212\u7b97", "2338": "\u6807\u5fd7", "2339": "\u5e76\u975e", "2340": "\u4e0d\u4ec5\u4ec5", "2341": "\u5bf9\u6bd4", "2342": "\\", "2343": "\u62ff\u51fa", "2344": "\u6307\u793a\u706f", "2345": "\u8f7b\u8584", "2346": "\u9e21\u808b", "2347": "\u6258", "2348": "\u5199\u51fa", "2349": "\u80e1\u5170\u6210", "2350": "\u5e7f\u544a", "2351": "\u806a\u660e", "2352": "\u996e\u98df", "2353": "\u4e0b\u6c34", "2354": "\u5199\u610f", "2355": "\u6df7\u4e71", "2356": "\u7d2f", "2357": "\u4eb2\u81ea", "2358": "\u4ee5\u5916", "2359": "\u91d1\u5c5e", "2360": "\u9002\u7528", "2361": "\u4e0d\u6ee1", "2362": "\u592a\u91cd", "2363": "\u5176\u4ed6\u4eba", "2364": "\u968f\u624b", "2365": "\u770b\u4e0d\u4e0b\u53bb", "2366": "\u5a01\u6d77", "2367": "\u901b\u8857", "2368": "\u7684\u58eb", "2369": "\u89e6\u6478", "2370": "\u5e38\u7528", "2371": "\u65f6\u5149", "2372": "\u7ed8\u672c", "2373": "\u7bb1\u5b50", "2374": "\u5929\u6d25", "2375": "\u6ca1\u4eba", "2376": "\u5b9e\u8df5", "2377": "\u53f3\u8fb9", "2378": "\u5e9f\u8bdd", "2379": "\u53f0\u5f0f\u673a", "2380": "\u7a97\u5e18", "2381": "\u7b2c\u4e00\u672c", "2382": "\u5dee\u522b", "2383": "\u5438\u5f15\u529b", "2384": "\u89c2\u5bdf", "2385": "\u5165\u95e8", "2386": "\u5165\u624b", "2387": "\u6ca1\u610f\u601d", "2388": "\u6700\u521d", "2389": "\u5bfc\u822a", "2390": "\u5927\u6c14", "2391": "\u5982\u679c\u8bf4", "2392": "\u6218\u4e89", "2393": "usb", "2394": "\u5730\u56fe", "2395": "\u6f6e\u6e7f", "2396": "\u6781", "2397": "\u540c\u5fd7", "2398": "\u4fee\u6539", "2399": "\u518d\u8bf4", "2400": "\u5c3a\u5bf8", "2401": "\u660e\u786e", "2402": "\u770b\u4f3c", "2403": "\u7279\u610f", "2404": "\u6df1\u5165", "2405": "\u6c92", "2406": "\u8aaa", "2407": "600", "2408": "\u4e70\u8fc7", "2409": "\u8db3", "2410": "\u73ed\u8f66", "2411": "\u80cc", "2412": "\u6b64\u6b21", "2413": "\u66fe", "2414": "\u5927\u5931\u6240\u671b", "2415": "\u4e3a\u4e3b", "2416": "\u793c\u54c1", "2417": "\u540c\u7b49", "2418": "\u82af\u7247\u7ec4", "2419": "\u6574\u7406", "2420": "\u4ea4\u6d41", "2421": "\u51c6\u786e", "2422": "\u5bc4", "2423": "\u5458", "2424": "\u4e70\u4e2a", "2425": "\u819c", "2426": "\u8bb0\u4f4f", "2427": "\u4ec5\u4ec5", "2428": "\u6027", "2429": "\u660e\u5929", "2430": "\u6307", "2431": "\u7b7e\u5355", "2432": "\u5e78\u8fd0", "2433": "\u9636\u6bb5", "2434": "\u91cd\u70b9", "2435": "\u90a3\u8fb9", "2436": "\u4eb2\u5b50", "2437": "\u5305\u5305", "2438": "\u597d\u4e45", "2439": "\u9ed1\u5e97", "2440": "o", "2441": "\u578b\u53f7", "2442": "\u5f53\u4e2d", "2443": "\u6d32\u9645", "2444": "\u611f\u89c9\u4e0d\u597d", "2445": "\u597d\u51e0\u4e2a", "2446": "\u51d1\u5408", "2447": "\u8c08\u4e0d\u4e0a", "2448": "\u665a\u9910", "2449": "\u51fa\u53d1", "2450": "\u957f\u671f", "2451": "\u751f\u610f", "2452": "\u56db", "2453": "\u5f53\u5e74", "2454": "\u53ca\u5176", "2455": "\u96be\u88c5", "2456": "\u611f\u609f", "2457": "\u5e78\u597d", "2458": "\u9ad8\u5c42", "2459": "\u5f3a\u70c8\u5efa\u8bae", "2460": "\u6210\u90fd", "2461": "2006", "2462": "\u9a97", "2463": "\u5185\u6db5", "2464": "\u79ef\u6781", "2465": "\u79cd\u7c7b", "2466": "\u5341\u5206\u949f", "2467": "\u963f", "2468": "\u7ba1", "2469": "\u6761", "2470": "\u7d22\u5f15", "2471": "\u82f1\u624d", "2472": "\u8fd9\u4f4d", "2473": "\u906d\u9047", "2474": "\u6d41\u884c", "2475": "\u5949\u529d", "2476": "60", "2477": "\u8bd5\u8bd5", "2478": "QQ", "2479": "\u9884", "2480": "\u8bf7\u95ee", "2481": "\u6625\u8282", "2482": "\u642d", "2483": "\u7ec6\u5fc3", "2484": "\u4e00\u90e8\u5206", "2485": "\u8fdb\u4e00\u6b65", "2486": "\u5b50", "2487": "\u6848\u4f8b", "2488": "\u524d\u540e", "2489": "\u559c\u7231", "2490": "\u67e5\u770b", "2491": "\u7efc\u5408", "2492": "\u7ecf", "2493": "\u5185\u7f6e", "2494": "\u7ea2\u8272", "2495": "\u5e73\u6de1", "2496": "\u6765\u56de", "2497": "\u6539\u88c5", "2498": "\u5c0f\u5b66\u751f", "2499": "\u5e94\u7528", "2500": "\u7ffb\u7ffb", "2501": "\u501f", "2502": "\u5c0a\u91cd", "2503": "\u96be\u53d7", "2504": "4999", "2505": "\u6539\u9020", "2506": "\u5171\u9e23", "2507": "\u592a\u8fc7", "2508": "\u8003\u8bd5", "2509": "\u786e\u5b9a", "2510": "\u8bc6\u522b", "2511": "\u6574\u673a", "2512": "Check", "2513": "\u5b9e\u7528\u6027", "2514": "\u6c42\u5df1", "2515": "\u72ec\u7279", "2516": "\u7f16\u8f91", "2517": "\u6b7b\u673a", "2518": "\u4e0d\u4f46", "2519": "\u5f88\u503c", "2520": "\u5173\u95ed", "2521": "\u7fa1\u6155", "2522": "\u732b", "2523": "\u53a8\u623f", "2524": "\u62a2", "2525": "\u5ba4\u5185", "2526": "\u6c64\u59c6", "2527": "\u5355\u72ec", "2528": "\u602a", "2529": "\u592a\u70c2", "2530": "\u8bb2\u6545\u4e8b", "2531": "\u535a\u5ba2", "2532": "\u5899\u4e0a", "2533": "\u96be\u5403", "2534": "\uff13", "2535": "\u62a5\u7eb8", "2536": "\u81ea\u5df2", "2537": "\u7761\u7740", "2538": "\u4fe1", "2539": "\u6311", "2540": "\u4e00\u81f4", "2541": "\u4e2d\u5f0f", "2542": "\u65e5\u5b50", "2543": "\u770b\u4e0d\u5230", "2544": "\u8bda\u8058", "2545": "\u6536\u96c6\u5668", "2546": "\u5546\u52a1\u9152\u5e97", "2547": "\u903b\u8f91", "2548": "\u9876", "2549": "\u77ff\u6cc9\u6c34", "2550": "\u996d\u83dc", "2551": "\u51e0\u672c\u4e66", "2552": "\u4e50\u89c2", "2553": "\u5e73\u8861", "2554": "\u523b\u5f55", "2555": "\u591a\u5143", "2556": "\u8bd5", "2557": "\u6ca1\u4e8b", "2558": "\u62e8\u6253", "2559": "\u5929\u624d", "2560": "\u770b\u7535\u89c6", "2561": "\u96be\u602a", "2562": "\u65f6\u523b", "2563": "\u8d70\u8fdb", "2564": "\u5355\u4f4d", "2565": "\u4f1a\u8bae", "2566": "\u671f\u671b", "2567": "\u9a8c\u8d27", "2568": "\u8db3\u8db3", "2569": "\u96be\u5ea6", "2570": "\u7c7b\u578b", "2571": "\u62c6", "2572": "\u88c5\u9970", "2573": "\u90a3\u65f6", "2574": "\u5f3a\u8c03", "2575": "\u5238", "2576": "\u6982\u5ff5", "2577": "\u9762\u524d", "2578": "\u9f99\u5934", "2579": "\u4e0d\u8d1f\u8d23\u4efb", "2580": "\u8857", "2581": "\u6709\u70b9\u50cf", "2582": "\u7275\u5f3a", "2583": "\u5f00\u4e1a", "2584": "\u5171", "2585": "\u4e00\u5c81", "2586": "\u91cd\u88c5\u7cfb\u7edf", "2587": "\u67dc\u53f0", "2588": "\u6572\u95e8", "2589": "\u5feb\u6377", "2590": "\u4f9b\u5e94", "2591": "\u8f7b\u5de7", "2592": "\u79bb\u5e97", "2593": "\u504f\u50fb", "2594": "\u6211\u5b9a", "2595": "\u6d3e", "2596": "\u8feb\u4e0d\u53ca\u5f85", "2597": "\u53d1\u89c9", "2598": "\u6d6a\u8d39\u65f6\u95f4", "2599": "\u6563\u6587", "2600": "\u4e00\u952e", "2601": "---", "2602": "\u56de\u5473", "2603": "\u8eab\u4f53\u5065\u5eb7", "2604": "\u5145\u7535", "2605": "\u6750\u6599", "2606": "\u914d\u5907", "2607": "\u5de8\u5927", "2608": "\u4e24\u5f20", "2609": "\u72b9\u8c6b", "2610": "0", "2611": "\u534e\u4e3d", "2612": "\u63d2\u69fd", "2613": "\u5b8c\u5584", "2614": "\u6392\u884c\u699c", "2615": "\u8bf4\u6559", "2616": "\u6ce8\u660e", "2617": "\u901a\u98ce", "2618": "\u6587\u4e2d", "2619": "\u4e0d\u901a", "2620": "I", "2621": "\u65e9\u9910\u5238", "2622": "\u4e0d\u7528\u8bf4", "2623": "\u51e0\u5206\u949f", "2624": "\u8bed", "2625": "\u4e24\u5c81", "2626": "\u563f\u563f", "2627": "\u4f24\u611f", "2628": "\u677e", "2629": "\u61d2\u5f97", "2630": "\u5e7f\u544a\u4e1a\u52a1", "2631": "Copyright1999", "2632": "\u7565\u663e", "2633": "\u5916\u8868", "2634": "\u4f24\u5bb3", "2635": "\u4e8e\u4e39", "2636": "\u8bc1\u660e", "2637": "\u5173\u673a", "2638": "\u722c", "2639": "AMD", "2640": "\u5730\u8bf4", "2641": "\u5730\u4e0b", "2642": "\u90a3\u672c", "2643": "\u7ef4\u62a4", "2644": "\u6781\u5927", "2645": "\u9a97\u4eba", "2646": "\u773c\u5149", "2647": "\u4e3b\u7ba1", "2648": "\u697c\u9053", "2649": "\u53ef\u7b11", "2650": "\u7b2c\u4e09\u5929", "2651": "\u529f\u80fd\u9f50\u5168", "2652": "\u9886\u5bfc", "2653": "\u4e58", "2654": "\u9752\u6625", "2655": "\u7279\u6b8a", "2656": "\u4e00\u58f0", "2657": "\u4e09\u5c81", "2658": "\u670d\u52a1\u53f0", "2659": "\u4e00\u8d2f", "2660": "\u591a\u591a", "2661": "\u5c3d\u5feb", "2662": "\u53d8", "2663": "\u5acc\u7591", "2664": "\u538b\u6291", "2665": "\u4e00\u5927", "2666": "\u5f00\u5c01", "2667": "\u54f2\u5b66", "2668": "\u8c61\u662f", "2669": "G", "2670": "DOS", "2671": "\u6210\u719f", "2672": "\u65e9\u70b9", "2673": "\u770b\u4e0d\u61c2", "2674": "\u5ef6\u8fdf", "2675": "\u52a0\u6536", "2676": "\u8868\u60c5", "2677": "\u4e00\u5c0f", "2678": "\u5f00\u7a97", "2679": "\u7ed3\u5c3e", "2680": "\u770b\u5f97", "2681": "\u4ece\u5c0f", "2682": "\u8350", "2683": "\u60c5\u7eea", "2684": "\u5439\u6367", "2685": "\u6307\u5bfc", "2686": "\u8bfb\u540e", "2687": "\u6d17\u6fa1\u6c34", "2688": "\u590f\u5929", "2689": "\u4e0b\u73ed", "2690": "\u6709\u6548", "2691": "\u4e00\u540d", "2692": "Linux", "2693": "\u6742\u5fd7", "2694": "GHOST", "2695": "\u5e38\u8bc6", "2696": "\u4e0d\u597d\u610f\u601d", "2697": "\u8fd9\u65f6", "2698": "\u8001\u5316", "2699": "\u5e8a\u5934", "2700": "\u5ba2\u623f\u90e8", "2701": "\u75d5\u8ff9", "2702": "\u5bc6\u7801", "2703": "\u4fe1\u5fc3", "2704": "\u517c\u5bb9", "2705": "\u5174\u594b", "2706": "\u5e94\u4ed8", "2707": "\u6267\u7740", "2708": "\u6d45\u663e", "2709": "\u8ba2\u8d27", "2710": "\u914d\u9001", "2711": "\u4ea4", "2712": "\u5236\u4f5c", "2713": "\u51fa\u98ce\u53e3", "2714": "\u4ef7", "2715": "\u5012\u9709", "2716": "\u5de6\u4fa7", "2717": "\u4e24\u672c\u4e66", "2718": "\u9694", "2719": "150", "2720": "70", "2721": "\u5927\u578b", "2722": "\u6bd4\u4e0d\u4e0a", "2723": "\u53cd\u601d", "2724": "\u4e00\u5982\u65e2\u5f80", "2725": "\u5957\u95f4", "2726": "\u7a76\u7adf", "2727": "\u6050\u6015", "2728": "\u9065\u63a7\u5668", "2729": "\u5229\u76ca", "2730": "\u516c\u4ea4\u8f66", "2731": "\u65c5\u884c", "2732": "\u6de1\u6de1\u7684", "2733": "\u53cc\u4eba\u623f", "2734": "\u4ee4\u4eba\u6ee1\u610f", "2735": "\u70ed\u7231", "2736": "\u9910\u5177", "2737": "\u89c4\u8303", "2738": "\u5b98", "2739": "\u4e2d\u6709", "2740": "\u9633\u53f0", "2741": "\u6c89", "2742": "\u5b98\u65b9", "2743": "\u597d\u7528", "2744": "\u6bd5\u6dd1\u654f", "2745": "\u505a\u51fa", "2746": "\u6a21\u7cca", "2747": "\u9152", "2748": "\u5229\u7528", "2749": "\u4f53\u79ef", "2750": "\u793c\u5bbe", "2751": "\u60b2\u54c0", "2752": "\u51b7\u51b0\u51b0", "2753": "\u611f\u6168", "2754": "\u653f\u5e9c", "2755": "\u5496\u5561", "2756": "\u82af\u7247", "2757": "\u652f\u4ed8", "2758": "\u7ed3\u5b9e", "2759": "\u7b2c\u4e09", "2760": "\u539f\u7248", "2761": "\u4e1c\u829d", "2762": "\u88c5\u673a", "2763": "\u6c11\u65cf", "2764": "\u7bc7\u5e45", "2765": "\u6b49\u610f", "2766": "\u76ee\u7684", "2767": "\u516d", "2768": "\u8fdc\u8fdc", "2769": "\u4e3a\u6b64", "2770": "\u517b\u751f", "2771": "\u4e09\u697c", "2772": "45", "2773": "\u6295\u8d44", "2774": "\u7cbe\u7ec6", "2775": "\u663e\u5b58", "2776": "\u660e\u671d", "2777": "\u7761\u4e0d\u7740", "2778": "\u5f15\u8d77", "2779": "\uff14", "2780": "\u575a\u5b9a", "2781": "\u5f00\u53d1\u533a", "2782": "\u901a\u4fd7\u6613\u61c2", "2783": "\u7269\u8d85\u6240\u503c", "2784": "\u770b\u51fa", "2785": "\u6b63\u9762", "2786": "\u897f\u65b9", "2787": "DDR3", "2788": "\u7b54\u5e94", "2789": "\u5f53\u665a", "2790": "\u7231\u770b", "2791": "\u6839", "2792": "\u88c5\u597d", "2793": "\u51b2\u7a81", "2794": "\u7b54", "2795": "\u66f0", "2796": "windows", "2797": "\u566a\u58f0", "2798": "\u5f3a\u70c8\u8981\u6c42", "2799": "\u52a0\u6cb9", "2800": "\u5435\u95f9", "2801": "\u7eb8\u8d28", "2802": "\u8001\u662f", "2803": "\u5f88\u723d", "2804": "\u63d0\u8d27", "2805": "\u7ea7\u522b", "2806": "\u4ef7\u683c\u5408\u7406", "2807": "HDMI", "2808": "\u5145\u5206", "2809": "\u9a71\u52a8\u7a0b\u5e8f", "2810": "\u5934\u53d1", "2811": "\u7a97", "2812": "\u540d\u4eba", "2813": "\u51ac\u5929", "2814": "\u5de5\u5730", "2815": "\u5982\u4e0b", "2816": "\u8425\u4e1a", "2817": "\u6c34\u58f6", "2818": "\u6765\u5230", "2819": "\u795e\u79d8", "2820": "\u9996\u9009", "2821": "\u9001\u8fc7\u6765", "2822": "\u6566\u714c", "2823": "\u5168\u4e66", "2824": "\u5916\u7f6e", "2825": "\u8fde\u9501", "2826": "08", "2827": "\u5973\u4e3b", "2828": "\u8336", "2829": "\u9898\u76ee", "2830": "\u9633\u5149", "2831": "\u5173\u95e8", "2832": "\u575a\u5f3a", "2833": "\u51b2", "2834": "\u522b\u8bf4", "2835": "\u4e34\u8857", "2836": "\u4e70\u4e66", "2837": "\u5904\u7406\u5668", "2838": "\u6708\u4efd", "2839": "\u80fd\u5426", "2840": "\u6253\u6298", "2841": "\u79fb\u52a8", "2842": "\u635f\u574f", "2843": "\u6666\u6da9", "2844": "\u70b9\u534a", "2845": "\u4e2d\u9910", "2846": "\u603b\u5171", "2847": "\u4e70\u5230", "2848": "\u597d\u627e", "2849": "\u6709\u9650", "2850": "\u5355\u7eaf", "2851": "\u8fd9\u513f", "2852": "\u6587\u4ef6", "2853": "\u51ed", "2854": "\u97f3\u91cf", "2855": "\u4e0d\u5168", "2856": "\u5171\u540c", "2857": "\u59d0\u59d0", "2858": "\u5de5\u827a", "2859": "\u4e30\u76db", "2860": "\u6d17\u8863", "2861": "\u97f3\u54cd", "2862": "\u4e00\u74f6", "2863": "\u4e4b\u4e2d", "2864": "\u4f18\u8d28", "2865": "\u5947\u5999", "2866": "\u9762\u677f", "2867": "\u4e00\u6761\u8857", "2868": "\u91d1\u9675", "2869": "\u4e00\u756a", "2870": "\u597d\u4e0d\u5bb9\u6613", "2871": "\u94f6\u5b50", "2872": "\u6574\u9f50", "2873": "\u9664\u975e", "2874": "\u5c45\u4f4f", "2875": "\u66ff", "2876": "\u538b\u529b", "2877": "\u6210\u4eba", "2878": "\u8bfb\u4e00\u8bfb", "2879": "\u96c6\u6210", "2880": "\u8fc7\u540e", "2881": "\u6211\u80fd", "2882": "\u884c\u7a0b", "2883": "\uff18", "2884": "\u6c7d\u8f66", "2885": "\u4e00\u8def", "2886": "\u5973\u4e3b\u89d2", "2887": "\u559c\u6765\u767b", "2888": "\u7b2c\u4e09\u6b21", "2889": "\u51e0\u904d", "2890": "\u5e72", "2891": "\u8bdd\u9898", "2892": "\u9650\u5236", "2893": "\u4e00\u662f", "2894": ".......", "2895": "\u67af\u71e5", "2896": "\u5957", "2897": "\u6e05\u7406", "2898": "\u7ea7", "2899": "\u8272", "2900": "\u52a8\u624b", "2901": "\u5e8a\u4e0a\u7528\u54c1", "2902": "\u5f85", "2903": "\u624b\u5370", "2904": "\u603b\u4f1a", "2905": "\u5ba2\u6c14", "2906": "\u4e00\u5806", "2907": "\u9879\u76ee", "2908": "\u5bb3\u6015", "2909": "\u4e00\u628a", "2910": "\u597d\u73a9", "2911": "\u51fa\u5165", "2912": "\u7a7a", "2913": "\u5916\u89c2\u8bbe\u8ba1", "2914": "\u827a\u672f", "2915": "\u7ed3\u5a5a", "2916": "\u53d6", "2917": "\u575a\u51b3", "2918": "\u597d\u4e9b", "2919": "\u7092", "2920": "\u4e0d\u5c0f", "2921": "\u78e8\u7802", "2922": "\u660f\u6697", "2923": "\u663e", "2924": "\u6808\u6865", "2925": "\u5357\u65b9", "2926": "\u6536\u96c6", "2927": "\u529f\u592b", "2928": "\u5168\u56fd", "2929": "\u9152\u5427", "2930": "\u8d76\u5feb", "2931": "\u4e8b\u7269", "2932": "\u7406\u6027", "2933": "\u534f\u7a0b", "2934": "\u87d1\u8782", "2935": "\u5173\u6389", "2936": "\u6613", "2937": "\u611f\u89e6", "2938": "\u4ee3\u8868", "2939": "\u5546\u5bb6", "2940": "\u907f\u514d", "2941": "\u53ef\u9760", "2942": "\u6697", "2943": "\u7559\u8a00", "2944": "\u4e24\u5e74", "2945": "\u5c06\u6765", "2946": "\u770b\u5427", "2947": "\u7537\u4e3b\u89d2", "2948": "\u8ba1\u8f83", "2949": "\u7f1d\u9699", "2950": "\u88c5\u8ba2", "2951": "\u8ba4\u53ef", "2952": "\u5373\u5c06", "2953": "\u3010", "2954": "\u3011", "2955": "\u65e5\u4e0b", "2956": "\u6b32\u671b", "2957": "\u5206\u522b", "2958": "\u7834\u574f", "2959": "\u4e25\u8c28", "2960": "\u65e0\u803b", "2961": "\u751f\u786c", "2962": "\u6559\u4f1a", "2963": "MM", "2964": "\u94a5\u5319", "2965": "\u7b7e\u5b57", "2966": "\u6ce8\u91cd", "2967": "\u627f\u53d7", "2968": "\u4eba\u58eb", "2969": "\u8f9b\u82e6", "2970": "@", "2971": "\u5608\u6742", "2972": "\u4f18\u7f8e", "2973": "\u5feb\u6377\u9152\u5e97", "2974": "\u987a\u4fbf", "2975": "\u8981\u8bf4", "2976": "\u76f8\u5e94", "2977": "\u897f\u5f0f", "2978": "\u6478", "2979": "\u4e09\u6b21", "2980": "\u5c0f\u5bb6\u4f19", "2981": "bios", "2982": "\u534f\u8c03", "2983": "\u7ec3\u4e60", "2984": "\u72d7", "2985": "\u65b0\u610f", "2986": "\u5212\u75d5", "2987": "\u6212", "2988": "\u7f3a\u9677", "2989": "\u7c98", "2990": "\u591a\u5927", "2991": "\u4efd", "2992": "\u539f\u4ee5\u4e3a", "2993": "\u81ed", "2994": "T", "2995": "all", "2996": "rights", "2997": "reserved", "2998": "\u4ea4\u6613", "2999": "\u771f\u5fc3", "3000": "\u4f46\u613f", "3001": "\u540c\u4e00\u4e2a", "3002": "\u5f88\u957f", "3003": "\u5f85\u9047", "3004": "\u4e00\u65e9", "3005": "\u8db3\u4ee5", "3006": "\u4e0d\u4e45", "3007": "\u5fe0\u5b9e", "3008": "\u627e\u4e2a", "3009": "\u4e00\u7247", "3010": "\u7bc7", "3011": "\u996e\u7528\u6c34", "3012": "\u5730\u5904", "3013": "\u654f\u611f", "3014": "\u5b66\u8005", "3015": "\u6b20\u7f3a", "3016": "\u8fc7\u5206", "3017": "\u4e50\u8da3", "3018": "\u4e0d\u7406", "3019": "\u642c", "3020": "\u53cc\u4eba\u95f4", "3021": "\u8ff7\u60d1", "3022": "\u6253\u62db\u547c", "3023": "\u4e0d\u9001", "3024": "\u7ed3\u7b97", "3025": "90", "3026": "\u5927\u5927\u7684", "3027": "\u4fa7\u9762", "3028": "\u5c31\u8c61", "3029": "\u8def\u8fb9", "3030": "\u7ade\u4e89", "3031": "\u6307\u7eb9\u8bc6\u522b", "3032": "\u53d7\u76ca", "3033": "\u770b\u4e00\u770b", "3034": "\u6d77\u9c9c", "3035": "\u5c31\u9910", "3036": "\u5199\u6210", "3037": "\u51fa\u8272", "3038": "\u79ef\u5206", "3039": "\u592a\u5c11", "3040": "\u5473", "3041": "\u4e0a\u4e0a\u7f51", "3042": "\u8001\u4eba", "3043": "\u670d\u52d9", "3044": "\u9875\u9762", "3045": "\u57ab", "3046": "\u96be\u770b", "3047": "\u9644\u9001", "3048": "\u4e2d\u73af", "3049": "\u6bcf\u5929\u665a\u4e0a", "3050": "\u4e0d\u6127", "3051": "\u6750\u8d28", "3052": "\u539f\u8457", "3053": "\u76f8\u53cd", "3054": "\u7ecf\u6d4e\u578b", "3055": "\u8fc7\u763e", "3056": "\u4e0d\u5feb", "3057": "\u6392\u961f", "3058": "\u4e00\u8f88\u5b50", "3059": "\u4e3b\u697c", "3060": "\u4f5c\u6587", "3061": "\u5c16\u6c99\u5480", "3062": "\u65e0\u4eba", "3063": "\u6124\u6012", "3064": "\u91d1\u989d", "3065": "\u95e8\u524d", "3066": "\u6bdb\u75c5", "3067": "\u65cb\u8f6c", "3068": "\u4e2d\u5173\u6751", "3069": "\u957f\u6625", "3070": "\u5341\u5e74", "3071": "\u5404\u9879", "3072": "\u9001\u4eba", "3073": "\u8ba8\u8bba", "3074": "\u6253\u4e0d\u5f00", "3075": "\u5899\u58c1", "3076": "\u4e00\u6b65", "3077": "\u65e0\u8da3", "3078": "\u6700\u8ba9\u4eba", "3079": "\u611f\u4eba", "3080": "\u5b81\u613f", "3081": "\u601d\u8def", "3082": "\u592a\u5feb", "3083": "\u597d\u4e0d\u597d", "3084": "\u60b2\u4f24", "3085": "\u6570\u91cf", "3086": "\u4e0d\u5fc5", "3087": "\u5e7c\u7a1a", "3088": "\u522b\u626d", "3089": "\u5076", "3090": "\u6734\u5b9e", "3091": "\u5c55\u73b0", "3092": "\u8d34\u5fc3", "3093": "\u6d17\u6f31", "3094": "\u66f4\u4e3a", "3095": "\u6807\u914d", "3096": "\u5c0f\u70b9", "3097": "\u97f3\u6548", "3098": "\u51fa\u4e8e", "3099": "\u5236\u5ea6", "3100": "\u8bc4", "3101": "\u5ba2\u6808", "3102": "\u6539\u4e3a", "3103": "\u9910\u9986", "3104": "\u5377", "3105": "\u6700\u65b0", "3106": "\u4eba\u6765", "3107": "\u5355\u8c03", "3108": "\u9884\u671f", "3109": "\u592a\u5435", "3110": "\u54ea\u6015", "3111": "\u901b", "3112": "\u96be\u95fb", "3113": "ok", "3114": "\u5e73\u65b9\u7c73", "3115": "\u7070", "3116": "\u5899", "3117": "\u5e73\u7c73", "3118": "\u90d1\u5dde", "3119": "\u8138", "3120": "\u5de6", "3121": "\u4eba\u624d", "3122": "\u4f18\u8d8a", "3123": "\u95ee\u5019", "3124": "\u62d6", "3125": "\u529e\u516c\u5ba4", "3126": "\u8bcd", "3127": "\u89e3\u8bfb", "3128": "\u521b\u9020", "3129": "\u4e00\u5411", "3130": "\u4e13\u7528", "3131": "\u539f", "3132": "\u5305\u542b", "3133": "\u8bd5\u8bd5\u770b", "3134": "\u6765\u81ea", "3135": "\u6b63\u89c4", "3136": "\u504f\u8d35", "3137": "\u63d2\u53e3", "3138": "\u6298", "3139": "\u6bcf\u665a", "3140": "\u5934\u75bc", "3141": "\u5f00\u542f", "3142": "\u624b\u6307", "3143": "\u6240\u6709\u4eba", "3144": "\u8fd8\u7b97", "3145": "\u5373\u4fbf", "3146": "\u5bbe\u81f3\u5982\u5f52", "3147": "\u7070\u8272", "3148": "\u5435\u5f97", "3149": "\u8d77\u5e8a", "3150": "\u5149", "3151": "\u8ddf\u98ce", "3152": "\u4e92\u76f8", "3153": "\u6216\u8005\u8bf4", "3154": "\u5982\u540c", "3155": "KTV", "3156": "\u4f53\u8d28", "3157": "\u6d4f\u89c8", "3158": "\u5916\u4f01", "3159": "\u4e2a\u522b", "3160": "\u4e00\u4ee3", "3161": "\u8fdb\u6b65", "3162": "\u975e\u5e38\u91cd\u89c6", "3163": "\u6d45\u663e\u6613\u61c2", "3164": "\u52a0\u5e8a", "3165": "\u670d\u52a1\u8d39", "3166": "\u82f9\u679c", "3167": "\u521a\u770b", "3168": "\u62a2\u8d2d", "3169": "\u539a\u91cd", "3170": "\u5904\u4e8e", "3171": "\u636e", "3172": "\u521d\u4e2d", "3173": "\u89d2\u843d", "3174": "\u5de7\u514b\u529b", "3175": "\u8fc7\u65f6", "3176": "2009", "3177": "\u5e86\u5e78", "3178": "\u4fee\u8def", "3179": "\u516c\u56ed", "3180": "\u89c2\u666f", "3181": "\u79cd", "3182": "\u67d0", "3183": "\u4e00\u4e00", "3184": "\u5154\u5b50", "3185": "\u8d5a\u94b1", "3186": "\u51fa\u5382", "3187": "\u996e\u6599", "3188": "\u4e16\u7eaa", "3189": "\u8981\u52a0", "3190": "\u65e0\u8bed", "3191": "\u4e94\u4e2a", "3192": "\u80cc\u540e", "3193": "\u7070\u5c18", "3194": "\u771f\u662f\u592a", "3195": "\u90a3\u6bb5", "3196": "\u9886\u57df", "3197": "\u9ed1\u5c4f", "3198": "\u5e73\u53f0", "3199": "\u5f88\u611f\u5174\u8da3", "3200": "\u65e0\u6570", "3201": "\u4e13\u5bb6", "3202": "\u5468", "3203": "\u4f9b", "3204": "\u6e05\u9192", "3205": "\u6e34\u671b", "3206": "\u7545\u9500\u4e66", "3207": "\u4e71\u4e03\u516b\u7cdf", "3208": "\u6570\u636e", "3209": "\u8fc7\u5f97\u53bb", "3210": "\u597d\u70b9", "3211": "\u4e0b\u964d", "3212": "3D", "3213": "\u6807\u9898", "3214": "\u4f8b\u5982", "3215": "\u4fee\u597d", "3216": "\u65e5\u665a", "3217": "\u539a\u9053", "3218": "\u8d35\u5bbe\u697c", "3219": "\u5168\u5957", "3220": "\u5047\u65e5", "3221": "\u95e8\u536b", "3222": "\u5b8c\u597d", "3223": "sata", "3224": "\u5e74\u8f7b\u4eba", "3225": "\u975e\u5e38\u9002\u5408", "3226": "\u533b\u5b66", "3227": "\u6570\u5b57", "3228": "\u4e24\u79cd", "3229": "\u5c4b\u91cc", "3230": "\u5435\u9192", "3231": "\u8ba1\u5212", "3232": "\u56fe\u753b\u4e66", "3233": "\u6821\u8f66", "3234": "\u4e0a\u5e1d", "3235": "\u4e0a\u73ed", "3236": "\u4e8c\u662f", "3237": "\u4e0d\u7981", "3238": "\u5546\u52a1\u4e2d\u5fc3", "3239": "\u5316", "3240": "\u8f66\u7a0b", "3241": "\u5fcd", "3242": "\u4e00\u518d", "3243": "\u56db\u5c81", "3244": "\u90ae\u4ef6", "3245": "\u81ed\u5473", "3246": "\u5411\u5f80", "3247": "\u5439", "3248": "\u8fd9\u95f4", "3249": "\u8863\u67dc", "3250": "\u745e\u661f", "3251": "\u6446\u8bbe", "3252": "\u60c5\u613f", "3253": "\u89e3\u7b54", "3254": "160G", "3255": "3999", "3256": "\u65e0\u654c", "3257": "\u5e73\u9759", "3258": "\u53e5\u5b50", "3259": "\u8ba2\u5355\u53f7", "3260": "\u5927\u536b", "3261": "\u6beb\u4e0d\u72b9\u8c6b", "3262": "\u666f\u89c2", "3263": "\u51e0\u5f20", "3264": "\u4e66\u8bc4", "3265": "\u7ecf\u8425", "3266": "\u91cd\u5e86", "3267": "\u8ff7\u832b", "3268": "\u6068", "3269": "\u70b9\u5fc3", "3270": "\u9ad8\u901f", "3271": "\u6709\u80a1", "3272": "\u751f\u5b58", "3273": "\u771f\u4e0d\u9519", "3274": "\u975e\u8981", "3275": "\u5916\u56fd\u4eba", "3276": "\u6e38\u6cf3", "3277": "\u6b23\u6170", "3278": "\u2015", "3279": "\u5403\u529b", "3280": "\u5065\u8eab", "3281": "\u4f18\u826f", "3282": "\u6bb5\u65f6\u95f4", "3283": "\u4e00\u7897", "3284": "\u6ef4", "3285": "\u529d", "3286": "\u770b\u4e2d", "3287": "\u5173\u5fc3", "3288": "hp", "3289": "\u5c0f\u4f19\u5b50", "3290": "\u8eab\u4efd\u8bc1", "3291": "\u4e34\u8fd1", "3292": "\u6ca1\u8d27", "3293": "\u77e5\u8bc6\u70b9", "3294": "\u4e24\u665a", "3295": "\u9707\u64bc", "3296": "\u51b7\u6de1", "3297": "\u4e00\u5708", "3298": "\u8c22\u8c22\u60a8", "3299": "\u9644\u8d60", "3300": "\u77db\u76fe", "3301": "\u539f\u5219", "3302": "\u70b9\u5230", "3303": "\u4e00\u773c", "3304": "\u53d1\u8868", "3305": "\u5b54\u5b50", "3306": "\u53e4\u4ee3", "3307": "\u6a21\u4eff", "3308": "\u6709\u540d", "3309": "\u773c\u6cea", "3310": "\u4e2d\u5b66", "3311": "\u4e2d\u5b66\u751f", "3312": "\u4ed8\u94b1", "3313": "\u884c\u4e1a", "3314": "\u679c\u76d8", "3315": "\u5269\u4e0b", "3316": "\u8bf1\u60d1", "3317": "\u773c\u524d", "3318": "\u6c5f\u666f", "3319": "\u5fc3\u75bc", "3320": "\u5b8c\u6bd5", "3321": "\u5e02\u9762\u4e0a", "3322": "\u7b7e", "3323": "\u5e8a\u95f4", "3324": "\u8def\u7a0b", "3325": "\u7f8e\u5973", "3326": "\u8d28\u4fdd", "3327": "\u592a\u597d\u4e86", "3328": "\u4ee5\u5f80", "3329": "\u4ffa", "3330": "\u7ecf\u7edc", "3331": "\u5076\u7136", "3332": "\u4ef6", "3333": "\u5224\u65ad", "3334": "ghost", "3335": "\u7ec6\u7ec6", "3336": "\u8d27\u7269", "3337": "\u73af\u4fdd", "3338": "\u591a\u4e2a", "3339": "\u901a\u75c5", "3340": "\u767d", "3341": "\u6700\u591a", "3342": "\u4e8b\u5b9e\u4e0a", "3343": "\u5e78\u4e8f", "3344": "\u4e00\u584c\u7cca\u6d82", "3345": "\u96c6\u56e2", "3346": "\u5148\u5230", "3347": "\u83dc\u9e1f", "3348": "\u95f9", "3349": "\u624b\u5de5", "3350": "\u643a\u5e26\u65b9\u4fbf", "3351": "\u8001\u9f20", "3352": "\u597d\u7b11", "3353": "280", "3354": "\u957f\u9014", "3355": "\u4ef7\u503c\u89c2", "3356": "\u5927\u58f0", "3357": "\u53cb\u8c0a", "3358": "\u5f7c\u6b64", "3359": "\u592a\u539f", "3360": "\u68a6", "3361": "\u9601", "3362": "\u4ee5\u81f3\u4e8e", "3363": "\u592a\u6709", "3364": "\u529e\u624b\u7eed", "3365": "\u6cf3\u6c60", "3366": "\u80cc\u9762", "3367": "\u5546\u4e1a\u533a", "3368": "\u80fd\u7528", "3369": "\u88c5\u5b8c", "3370": "\u5982\u4eca", "3371": "\u516d\u70b9", "3372": "\u771f\u76f8", "3373": "\u8bb2\u5b8c", "3374": "\u653e\u5230", "3375": "\u65c1", "3376": "\u62a5", "3377": "\u504f\u5c0f", "3378": "\u5f7b\u5e95", "3379": "\u672c\u5730", "3380": "\u8f66\u7ad9", "3381": "\u6309\u94ae", "3382": "\u672a\u5fc5", "3383": "\u53ef\u8bfb\u6027", "3384": "\u8d54\u507f", "3385": "\u5e72\u4ec0\u4e48", "3386": "\u4efb\u4f55\u4eba", "3387": "\u4fee\u7406", "3388": "\u8ddd", "3389": "\u5373\u53ef", "3390": "ThinkPad", "3391": "\u5927\u5b66\u751f", "3392": "\u5730\u9053", "3393": "\u4ef7\u5ec9\u7269\u7f8e", "3394": "\u751a", "3395": "\u82e6", "3396": "\u6253\u4e2a", "3397": "\u5382\u5bb6", "3398": "\u5acc", "3399": "http", "3400": "\u8f66\u4e0a", "3401": "\u8fc5\u901f", "3402": "\u8d34\u8fd1", "3403": "\u5f8c", "3404": "1000", "3405": "\u6572", "3406": "\u9732\u5929", "3407": "\u5b64\u72ec", "3408": "\u673a\u578b", "3409": "\u804c\u4e1a", "3410": "\u822c", "3411": "\u5f69\u8272", "3412": "\u9a84\u50b2", "3413": "\u4e00\u7cfb\u5217", "3414": "\u60ca\u4eba", "3415": "\u7565", "3416": "\u8c03\u6362", "3417": "\u4eb2\u60c5", "3418": "\u5b8f\u57fa", "3419": "\u60f3\u7740", "3420": "THINKPAD", "3421": "\u4e00\u7c7b", "3422": "\u5047\u671f", "3423": "\u4e0d\u8010\u70e6", "3424": "\u56e0\u7d20", "3425": "\u53d6\u5f97", "3426": "\u8a00", "3427": "\u6851\u62ff", "3428": "\u8fd9\u53f0", "3429": "9.5", "3430": "\u624b\u4e0a", "3431": "\u6b64\u65f6", "3432": "\u5f00\u7740", "3433": "\u5c31\u884c\u4e86", "3434": "\u8bb2\u5f97", "3435": "\u8da3\u5473\u6027", "3436": "\u4f86", "3437": "\u641e\u4e0d\u61c2", "3438": "\u83ab\u540d\u5176\u5999", "3439": "led", "3440": "\u7b14\u4e0b", "3441": "\u56fe\u4e66\u9986", "3442": "\u987a\u7545", "3443": "\u94fa", "3444": "\u6cbe", "3445": "\u5c3d", "3446": "\u8bfb\u76d8", "3447": "\u789f", "3448": "\u4e4b\u5904", "3449": "\u591c\u665a", "3450": "\u5bb3\u5f97", "3451": "\u79bb\u8c31", "3452": "1.5", "3453": "\u5410", "3454": "\u4e1a\u4f59", "3455": "\u6050\u9f99", "3456": "\u80af", "3457": "\u8bb2\u7a76", "3458": "\u7b2c\u56db", "3459": "180", "3460": "\u4e00\u6839", "3461": "\u4e0d\u5dee", "3462": "\u6563\u70ed\u5668", "3463": "360", "3464": "\u5149\u7ebf", "3465": "\u82f1\u8bed\u5355\u8bcd", "3466": "\u83dc\u5355", "3467": "D", "3468": "\u6311\u9009", "3469": "\u529f\u80fd\u952e", "3470": "\u5f62\u6210", "3471": "\u5177\u5907", "3472": "\u6bd4\u8f83\u7b80\u5355", "3473": "\u5de5\u4f5c\u65e5", "3474": "\u9001\u8d27\u5458", "3475": "\u665a\u996d", "3476": "\u5f85\u673a", "3477": "\u6ca1\u9519", "3478": "\u641e\u9519", "3479": "\u624b\u6bb5", "3480": "\u5e74\u524d", "3481": "\u9898\u6750", "3482": "\u5b89\u88c5\u76d8", "3483": "ACER", "3484": "\u8fd8\u539f", "3485": "\u522b\u5885", "3486": "\u4e4b\u6240\u4ee5", "3487": "\u5883\u754c", "3488": "\u5148\u662f", "3489": "\u4e00\u4e2a\u591a", "3490": "\u5929\u4e0b", "3491": "\u5927\u7247", "3492": "\u56fd\u8425", "3493": "\u65b9", "3494": "\u6545\u610f", "3495": "\u96c6\u6210\u663e\u5361", "3496": "\u89c9", "3497": "\u9001\u4e2a", "3498": "\u4e09\u6bdb", "3499": "\u60ca\u8bb6", "3500": "\u62c6\u5f00", "3501": "\u51e0\u53e5", "3502": "\u8d5a", "3503": "\u70b9\u524d", "3504": "\u666e\u901a\u8bdd", "3505": "\u6587\u91c7", "3506": "\u539f\u5148", "3507": "\u4e00\u9897", "3508": "\u505a\u4e2a", "3509": "intel", "3510": "\u5e26\u6709", "3511": "\u76f8", "3512": "\u751f\u75c5", "3513": "\u6613\u61c2", "3514": "\u6d4e\u5357", "3515": "U\u76d8", "3516": "\u904d", "3517": "298", "3518": "\u81ea\u89c9", "3519": "\u4e0d\u81f3\u4e8e", "3520": "\u519c\u6751", "3521": "\u7231\u4eba", "3522": "\u5b66\u95ee", "3523": "\u4e0d\u5931", "3524": "\u843d\u540e", "3525": "\uff19", "3526": "\u8865", "3527": "\u5546\u4e1a", "3528": "\u7528\u5904", "3529": "\u8d70\u5411", "3530": "\u4e1c\u839e", "3531": "\u5a92\u4f53", "3532": "\u5b89\u6170", "3533": "\u516d\u5c81", "3534": "=", "3535": "\u7259\u5237", "3536": "\u8bd7\u8bcd", "3537": "\u6ea7\u9633", "3538": "\u5370", "3539": "\u770b\u4e0d\u51fa", "3540": "\u4f73", "3541": "\u5404\u79cd\u5404\u6837", "3542": "\u677f", "3543": "\u4e0b\u65b9", "3544": "\u72d7\u72d7", "3545": "\u5c0f\u9e21", "3546": "\u6295\u5165", "3547": "\u53cc\u5e8a", "3548": "\u88c5\u6f62", "3549": "\u63d2\u5ea7", "3550": "\u4e09\u672c", "3551": "\u4e1a\u52a1", "3552": "\u6000\u5ff5", "3553": "\u7167", "3554": "\u6279\u5224", "3555": "\u5e7f\u5927", "3556": "\u56fd\u4eba", "3557": "\u81ea\u4fe1", "3558": "\u8001\u5b9e", "3559": "\u8fd9\u624d", "3560": "\u6253\u5370", "3561": "\u8c01\u77e5", "3562": "\u4fc3\u9500", "3563": "\u7279\u5730", "3564": "\u8106\u5f31", "3565": "\u6d88\u6bd2", "3566": "\u76f8\u5904", "3567": "\u6c61\u6e0d", "3568": "\u6d53\u91cd", "3569": "\u94bb\u77f3", "3570": "\u88ab\u5355", "3571": "\u76f4\u8fbe", "3572": "\u7834\u635f", "3573": "\u9b45\u529b", "3574": "\u5f71\u5b50", "3575": "\u7422\u78e8", "3576": "\u5e73\u5e38", "3577": "\u4e0d\u4e70", "3578": "\u6362\u4e2a", "3579": "320G", "3580": "\u51e0\u5bb6", "3581": "\u8a00\u8bed", "3582": "\u516c\u91cc", "3583": "\u6697\u70b9", "3584": "\u8fc7\u9ad8", "3585": "CHECK", "3586": "\u4e4f\u5473", "3587": "\u683c\u5f0f\u5316", "3588": "\u5927\u8857", "3589": "\u5e72\u8106", "3590": "\u9a6c\u8def\u4e0a", "3591": "\u9898", "3592": "\u5d29\u6e83", "3593": "\u56de\u4e8b", "3594": "\u968f\u610f", "3595": "\u8d34\u819c", "3596": "\u7f3a", "3597": "\u5c01\u76ae", "3598": "\u8bed\u6c14", "3599": "\u6446", "3600": "\u56fe\u50cf", "3601": "\u56e0\u70ba", "3602": "\u8981\u4e0d\u7136", "3603": "\u4e0d\u65f6", "3604": "\u6df1\u5965", "3605": "\u53cd\u5149", "3606": "\u6d17\u6d74", "3607": "\u80ae\u810f", "3608": "\u8bed\u6587", "3609": "\u4e00\u65e6", "3610": "\u4f60\u597d", "3611": "\u51e0\u4f4d", "3612": "\u7761\u5f97", "3613": "\u6bd4\u4f8b", "3614": "\u5408", "3615": "\u9c9c\u8273", "3616": "\u8fdb\u51fa", "3617": "\u5e10", "3618": "\u5220\u9664", "3619": "\u521a\u7528", "3620": "\u8d85\u51fa", "3621": "\u592a\u8fd1", "3622": "\u5c34\u5c2c", "3623": "\u53ea\u4e0d\u8fc7", "3624": "\u7a7f\u63d2", "3625": "\u53d1\u6325", "3626": "\u6210\u5c31", "3627": "\u533a\u57df", "3628": "\u4e4b\u4e0b", "3629": "\u5c41\u80a1", "3630": "\u9762\u5305", "3631": "\u4e0d\u4e0b", "3632": "\u7a33\u91cd", "3633": "\u6574\u6574", "3634": "\u5de5\u7a0b", "3635": "\u7b11\u8bdd", "3636": "\u62ff\u8d70", "3637": "\u82f1\u6587\u5355\u8bcd", "3638": "\u574e\u5777", "3639": "\u4fdd\u4fee", "3640": "\u8d21\u732e", "3641": "\u524d\u63d0", "3642": "\u7834\u65e7", "3643": "\u53d1\u9ec4", "3644": "\u8868\u793a\u6b49\u610f", "3645": "\u6839\u672c\u5c31\u662f", "3646": "\u8fb9\u7f18", "3647": "\u6fc0\u6d3b", "3648": "\u8ddf\u524d", "3649": "\u603b\u800c\u8a00\u4e4b", "3650": "\u8981\u6536", "3651": "\u87ba\u4e1d", "3652": "\u8f7b\u6613", "3653": "\u4fe1\u5ff5", "3654": "\u6d17\u5b8c", "3655": "\u5148\u8fdb", "3656": "\u5c0f\u8d39", "3657": "\u4e07", "3658": "\u5f88\u6162", "3659": "\u6a21\u5757", "3660": "\u641c", "3661": "\u539a\u5b9e", "3662": "\u88c5\u4e2a", "3663": "\u65f6\u671f", "3664": "\u89e6\u6478\u5c4f", "3665": "\u4ece\u524d", "3666": "\u901a\u4fd7", "3667": "\u6367", "3668": "\u6c14\u606f", "3669": "\u6c34\u6e29", "3670": "\u5e94\u5f53", "3671": "\u6570", "3672": "\u5bf9\u5e94", "3673": "\u795e", "3674": "\u521a\u624d", "3675": "\u9f13\u52b1", "3676": "\u5348\u9910", "3677": "\u505c\u8f66\u8d39", "3678": "\u5c0f\u4e8b", "3679": "\u4e24\u5957", "3680": "\u51fa\u540d", "3681": "\u4e09\u70b9", "3682": "\u591c\u95f4", "3683": "\u5730\u533a", "3684": "\u50bb", "3685": "\u4e0d\u53ef\u601d\u8bae", "3686": "\u4f20\u8bb0", "3687": "\u4e1c\u697c", "3688": "\u4e09\u4e9a", "3689": "\u73b0\u573a", "3690": "\u635f\u5931", "3691": "\u9ad8\u4e2d", "3692": "\u6d17\u624b", "3693": "\u51d1", "3694": "\u82cf\u5dde", "3695": "\u9ed1\u6697", "3696": "\u6559\u5b66", "3697": "\u89c4\u5219", "3698": "c", "3699": "\u80b2\u513f", "3700": "\u518d\u6765", "3701": "\u7ae5\u8bdd", "3702": "\u9a6c\u9a6c\u864e\u864e", "3703": "\u671b", "3704": "\u62dc\u6258", "3705": "\u5728\u5bb6", "3706": "\u623f\u91cc", "3707": "\u51fa\u6c34", "3708": "\u89c6\u91ce", "3709": "\u70e7", "3710": "\u4f17\u591a", "3711": "\u65b0\u4e66", "3712": "\u6444\u5f71", "3713": "\u624b\u518c", "3714": "\u6ee5", "3715": "\u5c0f\u952e\u76d8", "3716": "\u6253\u6b7b", "3717": "\u5df2\u6709", "3718": "\u611f\u53f9", "3719": "acer", "3720": "\u5439\u98ce\u673a", "3721": "\u6db2\u6676\u7535\u89c6", "3722": "\u56fa\u5b9a", "3723": "1g", "3724": "\u8981\u6b7b", "3725": "\u54af", "3726": "\u63a5\u9001", "3727": "\u7269\u8d28", "3728": "\u539f\u6587", "3729": "\u524d\u4e00\u5929", "3730": "\u6ca1\u5f97", "3731": "\u96be\u8fc7", "3732": "\u96c6", "3733": "\u8ff7\u4f60", "3734": "\u6bd4\u8f83\u6162", "3735": "\u4f5c\u51fa", "3736": "\u5357\u6000\u747e", "3737": "\u65c5\u5ba2", "3738": "\u64e6", "3739": "X200", "3740": "\u4e0b\u96e8", "3741": "\u5173\u4e0a", "3742": "and", "3743": "\u505a\u4eba", "3744": "\u4e07\u8c6a", "3745": "\u5e73\u65b9", "3746": "\u97f3\u54cd\u6548\u679c", "3747": "\u8d35\u5bbe", "3748": "\u51e0\u70b9", "3749": "\u8f66\u5e93", "3750": "\u4e00\u73ed", "3751": "\u6d17\u4e2a", "3752": "n", "3753": "\u51b7\u6f20", "3754": "\u76d2\u5b50", "3755": "\u5446", "3756": "\u591c\u666f", "3757": "\u8f83\u4e3a", "3758": "\u5feb\u70b9", "3759": "\u6700\u8d77\u7801", "3760": "\u8fd9\u8fb9", "3761": "\u6c99\u6ee9", "3762": "\u9ad8\u624b", "3763": "\u4e00\u8fdb", "3764": "\u7acb\u9a6c", "3765": "\u5e94\u6709", "3766": "\u89c1\u8fc7", "3767": "\u4e8c\u661f", "3768": "\u5c0f\u718a", "3769": "\u7b14\u8bb0\u672c\u7535\u8111", "3770": "\u6c14\u6d3e", "3771": "\u9910\u5238", "3772": "\u60ec\u610f", "3773": "\u4e00\u5bf9", "3774": "\u624d\u884c", "3775": "\u75db", "3776": "\u5c55\u5f00", "3777": "\u4fee\u517b", "3778": "\u73a9\u5177", "3779": "\u633a\u8212\u670d", "3780": "\u4fe9", "3781": "\u653f\u6cbb", "3782": "\u60f3\u4e0d\u5230", "3783": "\u5973\u670b\u53cb", "3784": "\u7231\u73b2", "3785": "\u4e0d\u8d35", "3786": "\u8d34\u8fd1\u751f\u6d3b", "3787": "\u7528\u8fc7", "3788": "\u51fa\u79df", "3789": "\u53d9\u4e8b", "3790": "\u6574\u6539", "3791": "\u5f52", "3792": "\u5317\u65b9", "3793": "sis", "3794": "\u79d8\u5bc6", "3795": "\u7686", "3796": "\u623f\u53f7", "3797": "\u6d53\u539a", "3798": "\u675c\u6bd4", "3799": "\u503c\u5f97\u4e00\u63d0\u7684\u662f", "3800": "\u4e39\u4e1c", "3801": "\u65e5\u8bb0", "3802": "\u53cb\u597d", "3803": "\u9119\u89c6", "3804": "\u53ea\u4f4f", "3805": "\u975e\u5e38\u611f\u8c22", "3806": "\u4e24\u70b9", "3807": "\u70b9\u949f", "3808": "\u6587\u660e", "3809": "\u53ef\u6076", "3810": "\u4e00\u4e66", "3811": "\u7591\u95ee", "3812": "\u5728\u8bfb", "3813": "\u5e95\u5ea7", "3814": "\u4e0d\u8be5", "3815": "\u624e\u5b9e", "3816": "\u91cd\u542f", "3817": "\u70e7\u70e4", "3818": "\u6781\u597d", "3819": "\u6ca1\u6cd5\u7528", "3820": "\u6d41\u6cea", "3821": "\u62db\u724c", "3822": "\u8877\u5fc3", "3823": "\u5e7c\u513f", "3824": "\u56fd\u60c5", "3825": "\u542c\u89c1", "3826": "\u53cc\u5c42", "3827": "C", "3828": "\u683c", "3829": "\u7cbe\u7075", "3830": "\u5de5\u4eba", "3831": "\u60f3\u8c61\u529b", "3832": "\u51fa\u4e66", "3833": "\u63a5\u7535\u8bdd", "3834": "\u4e00\u5bb6\u4eba", "3835": "\uffe5", "3836": "\u5c55\u793a", "3837": "\u65f6\u8bf4", "3838": "\u65fa\u89d2", "3839": "\u5ffd\u7565", "3840": "\u4fdd\u5065", "3841": "\u666e\u904d", "3842": "\u552f\u72ec", "3843": "\u7528\u5230", "3844": "\u697c\u68af", "3845": "\u5916\u63a5", "3846": "\u6ca1\u623f", "3847": "\u6dd8\u6c70", "3848": "\u600e", "3849": "\u4e0a\u5b66", "3850": "\u6211\u56fd", "3851": "\u770b\u591a", "3852": "\u89d2\u8272", "3853": "\u82cd\u8747", "3854": "\u7075\u9b42", "3855": "\u699c\u6837", "3856": "\u897f\u9910", "3857": "\u6001\u5ea6\u6076\u52a3", "3858": "\u6539\u6b63", "3859": "\u4e66\u7b7e", "3860": "\u8c03\u4f83", "3861": "\u6280\u672f\u4eba\u5458", "3862": "\u6bd4\u55bb", "3863": "\u90a3\u513f", "3864": "\u770b\u5f97\u51fa", "3865": "\u8bed\u6cd5", "3866": "\u8d85\u5927", "3867": "\u8d2d\u7269\u4e2d\u5fc3", "3868": "\u6c89\u91cd", "3869": "\u914d\u6709", "3870": "\u963f\u59e8", "3871": "\u7537\u53cb", "3872": "\u7455\u75b5", "3873": "\u76ee\u524d\u4e3a\u6b62", "3874": "\u4f18\u96c5", "3875": "\u4e0d\u8bba\u662f", "3876": "\u5e73\u5b9e", "3877": "\u8f03", "3878": "\u9c7c", "3879": "\u5584\u826f", "3880": "\u5728\u804c", "3881": "\u5b89\u5168\u611f", "3882": "\u54c1\u5473", "3883": "\u4fdd\u5b9a", "3884": "\u5ba2\u5385", "3885": "\u725b\u8089", "3886": "\u8bda\u4fe1", "3887": "\u82b1\u6d12", "3888": "\u7f8e\u7684", "3889": "\u5b63\u8282", "3890": "\u7b2c\u4e8c\u672c", "3891": "\u604b\u7231", "3892": "\u9ed1\u767d", "3893": "\u5e76\u672a", "3894": "\u5e94\u5bf9", "3895": "\u552e\u540e\u670d\u52a1", "3896": "\u4e24\u95f4", "3897": "\u7838", "3898": "\u770b\u5f85", "3899": "\u786c\u76d8\u5206\u533a", "3900": "\u6807\u7b7e", "3901": "\u6b65\u884c\u8857", "3902": "\u795d", "3903": "\u4e24\u904d", "3904": "\u613f\u671b", "3905": "1024", "3906": "\u672c\u60f3", "3907": "\u4e0d\u4f73", "3908": "\u5c0f\u5b9d\u5b9d", "3909": "\u6253\u52a8", "3910": "\u536b\u751f\u6761\u4ef6", "3911": "\u900f", "3912": "\u4fbf\u643a", "3913": "\u5408\u4e0a", "3914": "\u602a\u5473", "3915": "\u5546\u4e1a\u8857", "3916": "\u4ee5\u514d", "3917": "\u4e0a\u95e8", "3918": "\u6b63\u54c1", "3919": "\u63a8\u7406", "3920": "\u5c31\u662f\u8bf4", "3921": "\u53eb\u505a", "3922": "\u81ea\u79c1", "3923": "\u4ece\u6b64", "3924": "\u4f4e\u70b9", "3925": "\u591a\u4e00\u70b9", "3926": "\u56f0\u60d1", "3927": "\u6000\u7740", "3928": "\u90a3\u95f4", "3929": "\u53eb\u8f66", "3930": "\u671d", "3931": "\u5bbd\u5bb9", "3932": "\u7801\u5934", "3933": "\u5236\u51b7", "3934": "\u7ea2", "3935": "\u91cf", "3936": "\u5398\u7c73", "3937": "\u4e94\u5206\u949f", "3938": "\u95f9\u4e2d\u53d6\u9759", "3939": "\u6bcf\u4eba", "3940": "\u4f1f\u5927", "3941": "\u663e\u793a\u5668", "3942": "\u5f3a\u608d", "3943": "\u4f73\u671f", "3944": "\u6d6a\u6f2b", "3945": "\u8857\u4e0a", "3946": "\u770b\u597d", "3947": "\u8fd4\u4fee", "3948": "\u65b0\u4eba", "3949": "\u4eba\u5927", "3950": "\u9759\u97f3", "3951": "\u4eae", "3952": "\u65b0\u9896", "3953": "\u5f00\u4f1a", "3954": "\u751f\u7269", "3955": "\u9644\u697c", "3956": "\u72ed\u5c0f", "3957": "\u7b80\u7ea6", "3958": "\u6d77\u6e2f", "3959": "\u6653\u5f97", "3960": "\u5e7b\u60f3", "3961": "\u4ece\u4e8b", "3962": "\u4e00\u4e1d", "3963": "\u53ea\u60f3", "3964": "\u7537\u4e3b", "3965": "\u5c0f\u59d1\u5a18", "3966": "\u76d6\u7ae0", "3967": "\u8bf8\u591a", "3968": "\u6709\u592a\u591a", "3969": "\u8d70\u8fc7", "3970": "\u6e10\u6e10", "3971": "\u4e00\u7fa4", "3972": "\u5899\u7eb8", "3973": "\u670d", "3974": "\u51c6", "3975": "\u997f", "3976": "\u6dfb\u52a0", "3977": "\u77e5", "3978": "\u90a3\u6761", "3979": "\u82f1\u96c4", "3980": "\u540d\u6c14", "3981": "\u4e2d\u89c4\u4e2d\u77e9", "3982": "\u7eff\u8272", "3983": "\u4e00\u9635", "3984": "\u7b2c\u4e00\u90e8", "3985": "\u524d\u5929", "3986": "\u5b9a\u4f4d", "3987": "\u603b\u90e8", "3988": "\u660e\u73e0", "3989": "\u7a7a\u767d", "3990": "sony", "3991": "\u8bf4\u51fa", "3992": "\u7687\u51a0", "3993": "\u957f\u4e45", "3994": "\u5927\u9646", "3995": "\u5fc5\u7136", "3996": "\u4e2d\u8981", "3997": "\u4e00\u5206\u8d27", "3998": "\u7b97\u4e0d\u4e0a", "3999": "\u4e1c\u65b9", "4000": "\u628a\u63e1", "4001": "\u65e0\u7ebf\u7f51\u7edc", "4002": "\u901f\u5ea6\u6162", "4003": "\u518d\u6709", "4004": "\u4e00\u5927\u5806", "4005": "\u51c9", "4006": "\u6f06\u9762", "4007": "\u56e2\u961f", "4008": "\u5f97\u77e5", "4009": "\uff05", "4010": "\u592a\u70ed", "4011": "\u6709\u76ca", "4012": "\u8bda\u6073", "4013": "\u901a\u7528", "4014": "\u4eba\u54c1", "4015": "\u60b2\u5267", "4016": "\u94f6\u5e06", "4017": "\u5927\u697c", "4018": "\u91d1\u94b1", "4019": "\u80e1", "4020": "\u8bcd\u6c47", "4021": "\u4e0d\u5361", "4022": "\u4ece\u6ca1", "4023": "\u7236\u4eb2", "4024": "\u5bf9\u5916", "4025": "\u795d\u60a8", "4026": "\u6d88\u9063", "4027": "\u65e0\u9521", "4028": "\u5f88\u6d53", "4029": "\u8d22\u52a1", "4030": "\u8fce\u5bbe", "4031": "\u4fe1\u8d56", "4032": "\u603b\u6709", "4033": "\u4fe1\u8a89", "4034": "\u5bbd\u5c4f", "4035": "\u5fae\u5fae", "4036": "\u516c\u4ea4", "4037": "\u76ee\u5f55", "4038": "\u516c\u9053", "4039": "\u4eba\u6c11", "4040": "\u672c\u8d28", "4041": "\u65b0\u624b", "4042": "\u8bd5\u7528", "4043": "\u76d7\u7248\u4e66", "4044": "\u5a13\u5a13\u9053\u6765", "4045": "\u6b64\u5916", "4046": "\u4e0d\u5f00", "4047": "\u5141\u8bb8", "4048": "\u5feb\u9910", "4049": "\u8fd9\u4e48\u4e45", "4050": "\u7761\u7720", "4051": "\u591a\u70b9", "4052": "\u603b\u673a", "4053": "\u8d1f\u9762", "4054": "\u523b\u753b", "4055": "\u8c03\u67e5", "4056": "\u8d85\u597d", "4057": "\u6700\u6700", "4058": "\u5c0f\u8c46\u8c46", "4059": "\u79cd\u79cd", "4060": "\u6c14\u6c1b", "4061": "\u4e07\u4e00", "4062": "\u6df1\u601d", "4063": "\u4e0d\u6765", "4064": "\u9ed8\u8ba4", "4065": "\u6c61\u8ff9", "4066": "667", "4067": "\u4e0d\u53ef\u591a\u5f97", "4068": "\u7535\u6e90\u7ebf", "4069": "\u4f55\u51b5", "4070": "\u9047\u89c1", "4071": "\u7f20", "4072": "\u7167\u7740", "4073": "\u4e0d\u77e5\u6240\u4e91", "4074": "\u5c0f\u5c0f", "4075": "\u6700\u70c2", "4076": "\u5fc3\u52a8", "4077": "\u62db\u547c", "4078": "\u6d53", "4079": "\u6c89\u601d", "4080": "\u529f\u5e95", "4081": "\u5b66\u672f", "4082": "\u63a8\u51fa", "4083": "\u8fd9\u4e00", "4084": "\u53ef\u60f3\u800c\u77e5", "4085": "\u6d45", "4086": "\u5927\u90fd", "4087": "\u6563\u6b65", "4088": "\u8f6f", "4089": "\u666f\u533a", "4090": "\u62ce", "4091": "\u54e5\u54e5", "4092": "\u592a\u592a", "4093": "\u5df4", "4094": "\u5c0f\u6797", "4095": "\u6559\u79d1\u4e66", "4096": "\u65f6\u8981", "4097": "\u5927\u5988", "4098": "\u5e26\u5230", "4099": "\u6bd5\u4e1a", "4100": "\u7ba1\u7406\u4eba\u5458", "4101": "\u7a0d\u663e", "4102": "\u8d34\u5207", "4103": "\u76d6\u5b50", "4104": "\u7559\u7ed9", "4105": "\u4e0b\u86cb", "4106": "\u4e00\u5206\u949f", "4107": "\u4e25\u683c", "4108": "\u627f\u62c5", "4109": "\u5b9a\u5f8b", "4110": "\u53c2\u4e0e", "4111": "\u67e5\u8be2", "4112": "\u62dc\u8bfb", "4113": "\u89e6\u63a7\u677f", "4114": "\u6696", "4115": "\u4e94\u4e00", "4116": "\u665a\u70b9", "4117": "\u6574\u665a", "4118": "\u70e6", "4119": "\u9a9a\u6270", "4120": "\u5413", "4121": "\u90ae\u5c40", "4122": "\u4e9b\u8bb8", "4123": "\u70b9\u70b9", "4124": "\u8fd0\u52a8", "4125": "\u53ef\u53e3", "4126": "O", "4127": "\u5851\u9020", "4128": "\u5199\u6cd5", "4129": "\u6807", "4130": "\u5360\u7528", "4131": "\u5c71\u666f", "4132": "\u5148\u770b", "4133": "\u7231\u60c5\u6545\u4e8b", "4134": "\u5f00\u5934", "4135": "\u6000\u5b55", "4136": "\u540c\u4e00", "4137": "\u633a\u5927", "4138": "\u4ed6\u5bb6", "4139": "\u771f\u5b9e\u6027", "4140": "\u6210\u5206", "4141": "\u4e0d\u4e0a", "4142": "\u6742\u4e71", "4143": "\u9886\u73ed", "4144": "\u656c\u4f69", "4145": "\u8ffd\u6367", "4146": "\u77ed\u7bc7", "4147": "\u6781\u4e3a", "4148": "\u56db\u5468", "4149": "\u5f53\u4f5c", "4150": "\u6ca1\u6562", "4151": "\u5835", "4152": "\u51cf\u5c11", "4153": "\u884c\u8d27", "4154": "\u5f00\u53d1\u7968", "4155": "\uff15", "4156": "to", "4157": "\u9ad8\u7aef", "4158": "\u624b\u6cd5", "4159": "\u4e24\u5f20\u5e8a", "4160": "\u5efa\u8bbe", "4161": "160", "4162": "\u80e1\u540c", "4163": "\u65e0\u610f", "4164": "\u592b\u59bb", "4165": "\u59bb\u5b50", "4166": "\u597d\u53cb", "4167": "\u5c16", "4168": "\u8d70\u8d70", "4169": "\u9053\u8def", "4170": "\u7f8e\u98df", "4171": "----", "4172": "\u5168\u5bb6", "4173": "\u7ba1\u5bb6", "4174": "\u897f", "4175": "\u5904\u5904", "4176": "\u9c9c\u660e", "4177": "\u75af\u72c2", "4178": "\u8d85\u8d8a", "4179": "\u72af", "4180": "\u65ad\u7535", "4181": "\u751f\u65e5", "4182": "\u8a00\u60c5\u5c0f\u8bf4", "4183": "\u5f00\u53d1", "4184": "\u6df1\u611f", "4185": "\u6b63\u5b97", "4186": "IN", "4187": "\u5355\u8584", "4188": "\u89c1\u8bc6", "4189": "\u4e24\u53f0", "4190": "\u955c\u5b50", "4191": "\u5b83\u4eec", "4192": "\u5730\u7403", "4193": "\u5bc4\u5b58", "4194": "\u52a1\u5fc5", "4195": "\u6e05\u723d", "4196": "\u7b2c\u4e00\u8f91", "4197": "\u56db\u697c", "4198": "\u6df7", "4199": "\u5192", "4200": "\u641e\u597d", "4201": "\u5c81\u6708", "4202": "\u90a3\u4efd", "4203": "\u8bd1\u8005", "4204": "\u523a\u9f3b", "4205": "\u91d1\u949f", "4206": "\u500d", "4207": "\u6700\u4f4e", "4208": "\u7231\u597d\u8005", "4209": "\u4e00\u51fa", "4210": "\u4e0a\u697c", "4211": "\u4eae\u4e3d", "4212": "\u4fdd\u62a4\u819c", "4213": "\u70e7\u6c34", "4214": "\u5965\u8fd0", "4215": "\u5730\u8bfb", "4216": "\u611f\u89ba", "4217": "\u59dc\u6c64", "4218": "\u4e00\u5206", "4219": "\u8fd0\u8f6c", "4220": "\u4e00\u9053", "4221": "\u5c11\u5e74", "4222": "\u540c\u884c", "4223": "\u623f\u5c4b", "4224": "\u6307\u5b9a", "4225": "\u65f6\u4f1a", "4226": "\u8e0f\u5b9e", "4227": "\u5fc3\u7406\u54a8\u8be2", "4228": "\u66f4\u8ba9\u4eba", "4229": "\u611f\u60f3", "4230": "\u8282\u76ee", "4231": "\u7ec6\u8bfb", "4232": "\u559c\u597d", "4233": "\u966a\u4f34", "4234": "\u62e5\u6324", "4235": "\u4e0d\u662f\u592a\u597d", "4236": "\u4e00\u5206\u94b1", "4237": "\u4e2d\u592e", "4238": "\u7ba1\u7406\u5c42", "4239": "\u4e0d\u7231", "4240": "\u4f11\u95f2", "4241": "\u591a\u6570", "4242": "\u6613\u4e2d\u5929", "4243": "\u4e1d\u6beb", "4244": "\u5927\u4f53", "4245": "\u653e\u677e", "4246": "\u5f25\u8865", "4247": "\u5347", "4248": "\u673a\u5668\u8fd0\u884c", "4249": "\u6311\u5254", "4250": "\u554f\u984c", "4251": "\u80c3\u53e3", "4252": "\u5916\u52a0", "4253": "\u6fc0\u52a8", "4254": "\u8282\u80fd", "4255": "\u9b54\u517d", "4256": "\u4e0d\u5e78", "4257": "\u54ea\u4e9b", "4258": "\u8f66\u5b50", "4259": "\u5916\u5305\u88c5", "4260": "\u60c5\u666f", "4261": "\u8fd1\u671f", "4262": "\u7406\u667a", "4263": "\u7b7e\u7ea6", "4264": "\u4e00\u70b9\u513f", "4265": "\u4e00\u526f", "4266": "\u6795\u5957", "4267": "\u6539\u4e86", "4268": "\u4e0b\u69bb", "4269": "\u5b98\u65b9\u7f51\u7ad9", "4270": "\u5988", "4271": "\u5939", "4272": "N280", "4273": "\u592a\u810f", "4274": "\u4e0d\u4f4e", "4275": "\u798f\u5dde", "4276": "\u4e8b\u4e1a", "4277": "\u5546\u5e97", "4278": "\u6781\u529b\u63a8\u8350", "4279": "\u4e0b\u6c34\u9053", "4280": "\u53cc\u4eba", "4281": "\u8ba4\u77e5", "4282": "\u501f\u7ed9", "4283": "\u7b49\u4e8e", "4284": "\u6e05\u6e05\u695a\u695a", "4285": "\u7b2c\u4e8c\u904d", "4286": "\u7b2c\u4e8c\u8f91", "4287": "\u5408\u7b97", "4288": "\u62a5\u8b66", "4289": "\u5f88\u70c2", "4290": "\u6de1\u5b63", "4291": "\u4f4e\u7aef", "4292": "\u6bcf\u4f4d", "4293": "\u6211\u5e97", "4294": "\u4ee4\u4eba\u6c14\u6124", "4295": "\u8d77\u5230", "4296": "\u867d\u5c0f", "4297": "\u6765\u5f97\u53ca", "4298": "\u53f0\u4e0a", "4299": "\u5206\u5f00", "4300": "\u9887", "4301": "\u5047", "4302": "\u4fbf\u4e8e", "4303": "\u8868\u793a\u611f\u8c22", "4304": "\u90e8\u4f4d", "4305": "\u88c5\u4e0d\u4e0a", "4306": "\u964d\u5230", "4307": "\u65fa\u5b63", "4308": "\u5371\u673a", "4309": "\u80cc\u7740", "4310": "\u6d53\u70c8", "4311": "\u79f0", "4312": "\u5f53\u4ee3", "4313": "\u9752\u5e74", "4314": "\u8bba\u8ff0", "4315": "\u6b21\u65e5", "4316": "\u63a5\u4e0b\u6765", "4317": "\u88c5\u5e27", "4318": "\u4f53\u8d34", "4319": "\u4ed6\u4eba", "4320": "\u6781\u4e86", "4321": "\u5206\u91cf", "4322": "\u5356\u70b9", "4323": "\u4eba\u6c11\u5e01", "4324": "\u672a\u77e5", "4325": "\u589e\u957f", "4326": "\u5413\u4eba", "4327": "\u548c\u8c10", "4328": "\u641c\u7d22", "4329": "\u5f88\u6df1", "4330": "\u4eb2\u4eba", "4331": "\u624b\u7eed\u8d39", "4332": "\u591c\u91cc", "4333": "\u5a5a\u59fb", "4334": "\u901a\u7bc7", "4335": "\u7545\u9500", "4336": "\u5206\u6570", "4337": "\u52a8", "4338": "\u65e5\u5f0f", "4339": "\u7565\u5fae", "4340": "\u884c\u52a8", "4341": "\u996d", "4342": "\u5927\u81f4", "4343": "\u4e0d\u6210", "4344": "07", "4345": "\u70ed\u70b9", "4346": "\u9152\u5eca", "4347": "\uff16", "4348": "\u6587", "4349": "\u70ed\u91cf", "4350": "\u52b2", "4351": "\u4e3e\u52a8", "4352": "\u5168\u90fd", "4353": "\u6bd4\u5982\u8bf4", "4354": "\u592a\u665a", "4355": "\u7d22\u6027", "4356": "\u6b64\u7c7b", "4357": "\u6ca1\u88c5", "4358": "\u51b3\u4e0d", "4359": "\u4f59", "4360": "\u56fd\u5b66", "4361": "\u900f\u660e", "4362": "\u4e00\u573a", "4363": "\u900f\u8fc7", "4364": "\u4e00\u65b9\u9762", "4365": "\u6708\u521d", "4366": "\u754c\u9762", "4367": "\u652f\u7968", "4368": "\u8fd9\u53e5", "4369": "\u5f00\u6c34", "4370": "\u592a\u504f", "4371": "\u4e24\u4f4d", "4372": "\u8bf4\u5f97\u8fc7\u53bb", "4373": "\u7687\u5bb6", "4374": "\u6dcb\u6d74\u95f4", "4375": "\u8d8b\u52bf", "4376": "\u4e00\u5904", "4377": "\u4e00\u884c", "4378": "\u4e0d\u8db3\u4e4b\u5904", "4379": "\u53cd", "4380": "\u6905\u5b50", "4381": "\uff30", "4382": "\u5206\u6210", "4383": "\u6837\u5f0f", "4384": "\u5371\u9669", "4385": "\u5bb3\u4eba", "4386": "\u633a\u9ad8", "4387": "CTRIP", "4388": "\u90ae\u5bc4", "4389": "\u52a0\u4ee5", "4390": "\u5fae\u661f", "4391": "\u6269\u5c55", "4392": "\u9593", "4393": "\u7537\u5b69", "4394": "\u6bb5", "4395": "\u626c\u58f0\u5668", "4396": "\u8868\u8ff0", "4397": "\u5730\u6b65", "4398": "\u9999", "4399": "\u624b\u4e2d", "4400": "\u7d27", "4401": "\u96be\u61c2", "4402": "\u6d1b\u9633", "4403": "\u6ca1\u6d17", "4404": "\u5168\u7403", "4405": "\u7e41\u7410", "4406": "\u6655\u5012", "4407": "\u6574", "4408": "\u4e00\u500b", "4409": "\u9ec4\u5c71", "4410": "\u88ab\u8925", "4411": "\u62a5\u9500", "4412": "\u5546\u91cf", "4413": "\u4e24\u53ea", "4414": "\u7a97\u53e3", "4415": "\u8d5e\u540c", "4416": "\u8bd5\u60f3", "4417": "\u5dee\u5f97", "4418": "\u6ca1\u7761", "4419": "\u71ac", "4420": "\u5361\u901a", "4421": "\u6587\u5316\u5dee\u5f02", "4422": "\u714e", "4423": "\u7238\u7238\u5988\u5988", "4424": "\u7b80\u4ecb", "4425": "\u7a0d\u5dee", "4426": "\u96be\u80fd\u53ef\u8d35", "4427": "\u513f", "4428": "\u7535\u8111\u57ce", "4429": "\u7761\u524d", "4430": "\u4e3a\u6b62", "4431": "\u5730\u9762", "4432": "\u56f4\u7ed5", "4433": "\u89c1\u89e3", "4434": "\u5f53\u4e70\u4e66", "4435": "\u9547", "4436": "\u53d1\u73b0\u81ea\u5df1", "4437": "\u4e0d\u80fd\u4e0d", "4438": "\u671f\u671b\u503c", "4439": "\u65e0\u9650", "4440": "\u70ed\u5fc3", "4441": "\u4e0d\u582a", "4442": "\u5bc2\u5bde", "4443": "\u4eba\u4eba", "4444": "\u6655\u6b7b", "4445": "\u513f\u65f6", "4446": "\u866b\u5b50", "4447": "\u95f7", "4448": "\u770b\u4e0d\u89c1", "4449": "\u53cc\u9762\u80f6", "4450": "\u5185\u5730", "4451": "\u9519\u522b\u5b57", "4452": "\u4fbf\u662f", "4453": "\u7231\u7406\u4e0d\u7406", "4454": "\u76ae", "4455": "\u65f6\u5e38", "4456": "\u582a\u79f0", "4457": "\u638c\u6258", "4458": "\u76f8\u7231", "4459": "T4200", "4460": "\u5c0d", "4461": "\u9019\u6a23", "4462": "\u79fb\u52a8\u786c\u76d8", "4463": "\u9057\u5fd8", "4464": "\u8033\u673a", "4465": "\u8457\u540d", "4466": "\u76f8\u4f3c", "4467": "\u8f6c\u6362", "4468": "\u4f3c", "4469": "\u5e38", "4470": "\u4eba\u9645\u5173\u7cfb", "4471": "\u4e5d\u70b9", "4472": "\u80cc\u5149", "4473": "\u63d0\u4ea4", "4474": "\u67d0\u79cd", "4475": "\u661f\u661f", "4476": "\u591c\u5e02", "4477": "\u8be5\u5e97", "4478": "\u84dd", "4479": "\u5728\u5916", "4480": "\u6811\u7acb", "4481": "\u987a\u624b", "4482": "\u83dc\u54c1", "4483": "\u5927\u4e8e", "4484": "\u5f88\u4eae", "4485": "\u53e3\u543b", "4486": "\u79d1\u666e", "4487": "\u820d\u5f97", "4488": "\u9690\u85cf", "4489": "\u4e24\u5206\u949f", "4490": "\u5438\u70df", "4491": "\u532a", "4492": "\u540d\u8457", "4493": "\u4e00\u6b65\u6b65", "4494": "\u590d\u4e60", "4495": "\u5927\u9053\u7406", "4496": "\u4e66\u9875", "4497": "\u653e\u7740", "4498": "\u60f3\u50cf\u4e2d", "4499": "\u5341\u5143", "4500": "\u7d27\u51d1", "4501": "\u96be\u5fd8", "4502": "\u4e09\u601d", "4503": "LCD", "4504": "\u4e00\u4f4f", "4505": "\u7231\u5fc3", "4506": "\u500b", "4507": "\u9ebd", "4508": "\u65f6\u624d", "4509": "\u6bcf\u5e74", "4510": "\u514d", "4511": "\u6cc9\u5dde", "4512": "\u540c\u611f", "4513": "\u6597\u4e89", "4514": "\u4e0e\u5176", "4515": "\u5f39\u7c27", "4516": "\u591a\u4e00\u4e9b", "4517": "\u62ac\u5934", "4518": "\u7ec4\u7ec7", "4519": "\u59d3\u540d", "4520": "\u88c5\u7f6e", "4521": "\u65e9\u5df2", "4522": "\u8865\u507f", "4523": "\u5220", "4524": "\u73cd\u85cf", "4525": "\u897f\u8857", "4526": "\u6c7d\u8f66\u7ad9", "4527": "\u5bf9\u7167", "4528": "PS", "4529": "TAXI", "4530": "\u77ed\u4fe1", "4531": "\u5851\u6599\u888b", "4532": "\u5e8f", "4533": "\u53cd\u7701", "4534": "\u4e0d\u9002", "4535": "\u8865\u4e01", "4536": "\u6253\u51fa", "4537": "\u51e0\u5341\u9875", "4538": "\u6211\u8bfb", "4539": "\u6211\u4f4f", "4540": "\u524d\u8005", "4541": "\u6708\u4eae", "4542": "\u9634\u6697", "4543": "\u7269\u7f8e\u4ef7\u5ec9", "4544": "\u5f31", "4545": "\u7545", "4546": "\u70e6\u8e81", "4547": "\u817f", "4548": "\u773c\u770b", "4549": "\u66f8", "4550": "\u4ed8\u8d39", "4551": "\u75c5", "4552": "\u8001\u5988", "4553": "\u6f2b\u957f", "4554": "\u592a\u96be", "4555": "\u518c", "4556": "dell", "4557": "\u89c6\u89c9", "4558": "\u4e0d\u5f97", "4559": "\u504f\u504f", "4560": "\u6df1\u6df1\u5730", "4561": "\u501f\u53e3", "4562": "\u7528\u529b", "4563": "\u672c\u6b21", "4564": "\u4f4e\u7ea7", "4565": "\u5f53\u65e5", "4566": "\u5e08\u5085", "4567": "\u9c9c\u82b1", "4568": "\u6253\u5305", "4569": "\u9992\u5934", "4570": "\u504f\u91cd", "4571": "\u9002\u914d\u5668", "4572": "\u9ec4\u8272", "4573": "\u8d28\u95ee", "4574": "\u6d77\u6ee9", "4575": "\u51e0\u5c81", "4576": "\u7687\u5e1d", "4577": "\u7528\u624b", "4578": "\u591a\u79cd", "4579": "\u968f", "4580": "\u65e9\u671f", "4581": "\u5927\u9053", "4582": "\u64c5\u81ea", "4583": "\u7ae3\u5de5", "4584": "\u666e\u53ca", "4585": "\u6c34\u91cf", "4586": "\u5916\u578b", "4587": "\u8f83\u8fd1", "4588": "\u5355\u4e00", "4589": "\u5355\u5b50", "4590": "\u5f17\u6d1b", "4591": "\u4e0d\u770b", "4592": "\u540c\u4ef7\u4f4d", "4593": "\u4e00\u4eba", "4594": "\u8bda\u631a", "4595": "\u6539\u5efa", "4596": "\u6478\u4e0a\u53bb", "4597": "\u591a\u82b1", "4598": "\u5927\u6d0b", "4599": "\u6536\u76ca", "4600": "\u900f\u5f7b", "4601": "\u4e66\u5230", "4602": "\u5145\u7535\u5668", "4603": "\u5c0f\u7f8e\u5973", "4604": "\u5907\u7528", "4605": "\u5feb\u8981", "4606": "\u8981\u94b1", "4607": "\u5e10\u5355", "4608": "\u643a\u57ce", "4609": "\u53cc\u901a\u9053", "4610": "\u6ca1\u8bf4\u7684", "4611": "\u89c2\u770b", "4612": "\u83ab\u6cf0", "4613": "Dell", "4614": "\u65f6\u7528", "4615": "\u7528\u8bed", "4616": "\u51fa\u53e3", "4617": "\u9910", "4618": "\u6ca1\u4f4f", "4619": "\u65e0\u5173", "4620": "\u4ece\u672a", "4621": "\u67e5\u627e", "4622": "\u6298\u78e8", "4623": "\u8d27\u5230\u4ed8\u6b3e", "4624": "\u773c\u754c", "4625": "\u4e4b\u6781", "4626": "\u6d74\u888d", "4627": "\u4e09\u5206\u4e4b\u4e00", "4628": "\u521d\u6b21", "4629": "\u4e24\u5468", "4630": "\u6821\u957f", "4631": "\u6218\u7565", "4632": "\u8bed\u53e5", "4633": "\u81ea\u884c\u8f66", "4634": "LG", "4635": "\u6b65\u6b65", "4636": "\u54ea\u4f4d", "4637": "\u592a\u51b7", "4638": "\u53cc", "4639": "\u76f8\u5f53\u4e8e", "4640": "\u5306\u5fd9", "4641": "\u8c08", "4642": "\u5b9e\u4f8b", "4643": "\u8f6c\u8eab", "4644": "\u7b80\u6613", "4645": "\u8d85\u5f3a", "4646": "\u6301\u7eed", "4647": "\u6ca1\u80fd", "4648": "\u7559\u5728", "4649": "\u5706\u901a", "4650": "\u670d\u52a1\u5468\u5230", "4651": "\u5047\u5982", "4652": "\u76ee\u6807", "4653": "\u5f53\u4eca", "4654": "\u5b66\u56ed", "4655": "\u63a8", "4656": "\u624b\u52a8", "4657": "\u5408\u5e86", "4658": "\u9891\u9053", "4659": "\u6559\u5e08", "4660": "\u5de6\u624b", "4661": "\u5564\u9152", "4662": "\u7406\u8d22", "4663": "\u767d\u9886", "4664": "\u65c5\u884c\u793e", "4665": "\u552f\u7f8e", "4666": "\u540d\u79f0", "4667": "\u505c\u7535", "4668": "\u4f20\u771f", "4669": "\u53ef\u53d6", "4670": "\u671f", "4671": "\u5c0f\u70b9\u5fc3", "4672": "\u6ca1\u8bdd\u8bf4", "4673": "\u65b9\u5dfe", "4674": "\u6628\u665a", "4675": "\u51b7\u6c34", "4676": "\u822a\u73ed", "4677": "\u6709\u5bb6", "4678": "\u6e7f", "4679": "\u7740\u60f3", "4680": "\u6c88\u9633", "4681": "\u5e38\u89c1", "4682": "\u7adf\u662f", "4683": "\u4e0d\u660e", "4684": "SONY", "4685": "\u623f\u5ba2", "4686": "\u6781\u7aef", "4687": "\u5f00\u653e", "4688": "\u9501", "4689": "\u4e8b\u5b9e\u8bc1\u660e", "4690": "\u727a\u7272", "4691": "\u70e6\u607c", "4692": "\u6642\u5019", "4693": "\u8f93\u5165", "4694": "\u6cf0\u5c71", "4695": "\u5965\u7279", "4696": "\u6f14\u7ece", "4697": "\u4e1c\u5317", "4698": "\u6811", "4699": "DIY", "4700": "\u8bd5\u7740", "4701": "\u4e0a\u8f66", "4702": "\u8bc4\u8bed", "4703": "\u57fa\u91d1", "4704": "\u6559\u6761", "4705": "\u559c\u60a6", "4706": "\u8be0\u91ca", "4707": "\u89e3\u6790", "4708": "\u521d\u6b65", "4709": "\u8bc1\u4ef6", "4710": "\u7968", "4711": "\u9707\u52a8", "4712": "\u6e56\u5dde", "4713": "\u4e5f\u5c31\u662f\u8bf4", "4714": "\u65e0\u6cd5\u5fcd\u53d7", "4715": "\u623f\u5185", "4716": "\u540e\u8fb9", "4717": "\u592a\u77ed", "4718": "\u897f\u697c", "4719": "\u901a\u7535", "4720": "\u67e5\u4e0d\u5230", "4721": "\u4e0d\u6015", "4722": "\u6c49\u5978", "4723": "\u5728\u610f", "4724": "3G", "4725": "Thinkpad", "4726": "\u5c71\u4e0a", "4727": "\u5546\u4e1a\u4e2d\u5fc3", "4728": "not", "4729": "\u4e8c\u5341\u5206\u949f", "4730": "\u70b9\u70b9\u6ef4\u6ef4", "4731": "\u6838\u5bf9", "4732": "\u8d85\u9ad8", "4733": "\u6c34\u6d52", "4734": "\u5237\u7259", "4735": "\u897f\u65b9\u4eba", "4736": "\u4e00\u5e94\u4ff1\u5168", "4737": "\u5b66\u7740", "4738": "\u611f\u6fc0", "4739": "\u8bd5\u7528\u7248", "4740": "\u4e8b\u540e", "4741": "\u4e0d\u8fc7\u5982\u6b64", "4742": "\u521d\u5b66\u8005", "4743": "\u7f16\u5199", "4744": "\u91cc\u5934", "4745": "\u8fd9\u7bc7", "4746": "\u717d\u60c5", "4747": "\u5199\u4e66", "4748": "\u8d8a\u6765\u8d8a\u5c11", "4749": "\u8bb2\u5ea7", "4750": "\u9876\u591a", "4751": "\u53f9\u606f", "4752": "\u65ad", "4753": "\u7238\u5988", "4754": "260", "4755": "\u5934\u5929", "4756": "\u5927\u9a6c\u8def", "4757": "\u770b\u4e0a", "4758": "\u591a\u4e45", "4759": "\u7834\u6d1e", "4760": "\u78b0", "4761": "\u51fa\u4e4e\u610f\u6599", "4762": "\u786c\u662f", "4763": "\u5c71", "4764": "\u4e0a\u5f53\u53d7\u9a97", "4765": "\u4e0d\u8bba", "4766": "\u9ec4\u91d1", "4767": "\u7ec8\u7a76", "4768": "\u6ca1\u5173\u7cfb", "4769": "\u65e0\u53ef\u6311\u5254", "4770": "\u4e3e", "4771": "\u4eba\u5fc3", "4772": "\u6027\u5b50", "4773": "\u65e0\u975e", "4774": "\u64a4", "4775": "\u5929\u5802", "4776": "\u5b81\u53ef", "4777": "\u7cfb", "4778": "\u517c\u987e", "4779": "\u539f\u4ef7", "4780": "\u5f00\u901a", "4781": "\u6b64\u6b3e", "4782": "\u6709\u4f4d", "4783": "html", "4784": "\u5750\u5730\u94c1", "4785": "\u6740\u6bd2", "4786": "\u7ec3", "4787": "\u8b93", "4788": "\u4e0d\u8fdc\u5904", "4789": "\u5fc3\u601d", "4790": "\u51fa\u5e93", "4791": "\u5199\u5b57\u53f0", "4792": "\u70ed\u6c34\u5668", "4793": "\u4e0d\u70ed", "4794": "\u4e09\u4eba\u95f4", "4795": "\u6e29\u548c", "4796": "\u73ab\u7470", "4797": "\u4f46\u4e66", "4798": "\u4e0b\u56de", "4799": "\u4e0a\u4e0b\u73ed", "4800": "\u76f8\u4e92", "4801": "\u83ab\u540d", "4802": "\u4eab\u7528", "4803": "\u8981\u88c5", "4804": "\u7ed8\u753b", "4805": "\u5c0f\u5154\u5b50", "4806": "\u7167\u987e", "4807": "\u54b3\u55fd", "4808": "\u54c8\u5c14\u6ee8", "4809": "\u5fe0\u544a", "4810": "\u5ec9\u4ef7", "4811": "68", "4812": "\u76f8\u5bf9\u6765\u8bf4", "4813": "\u54ea\u513f", "4814": "\u9891\u7387", "4815": "\u7ed9\u6211\u53d1", "4816": "\u53cb\u60c5", "4817": "\u6e05\u65b0", "4818": "\u529e\u5b8c", "4819": "\u5dee\u8fdc\u4e86", "4820": "\u987f\u65f6", "4821": "\u4e0d\u5403", "4822": "\u5ef6\u7eed", "4823": "\u660e\u4eae", "4824": "\u9001\u4e0a", "4825": "\u538c\u70e6", "4826": "\u5b9e\u8d28", "4827": "\u96f6", "4828": "\u4f55\u5fc5", "4829": "\u6b63\u5f0f", "4830": "\u5b81\u9759", "4831": "\u6027\u8d28", "4832": "\u63a5\u7ebf", "4833": "\u5730\u4f4d", "4834": "\u597d\u5947\u5fc3", "4835": "\u6d77\u6d0b\u516c\u56ed", "4836": "\u813e\u6c14", "4837": "\u751a\u8fdc", "4838": "\u4e5d\u9f99", "4839": "\u4eba\u95f4", "4840": "\u5927\u996d\u5e97", "4841": "\u5f88\u4e45", "4842": "\u9084\u662f", "4843": "\u9084\u6709", "4844": "\u6c92\u6709", "4845": "\u76ef", "4846": "\u96be\u4ee5\u60f3\u8c61", "4847": "\u75bc", "4848": "\u56db\u5929", "4849": "\u5185\u5728", "4850": "\u5f55", "4851": "\u9010\u6e10", "4852": "\u5353\u8d8a", "4853": "\u82b1\u54e8", "4854": "\u8bf8\u4f4d", "4855": "\u6761\u5b50", "4856": "\u54cd\u58f0", "4857": "\u591a\u6708", "4858": "OEM", "4859": "\u9891\u7e41", "4860": "\u65f6\u6709", "4861": "\u53f7\u7801", "4862": "\u4e24\u8fb9", "4863": "\u5ea7", "4864": "\u4ece\u4e0d", "4865": "\u661f\u7ea7\u5bbe\u9986", "4866": "\u4e0d\u53ca", "4867": "\u6307\u70b9", "4868": "\u7535\u5b50", "4869": "\u4f4e\u6863", "4870": "\u5c0f\u8d44", "4871": "\u53f3", "4872": "\u5b87\u5b99", "4873": "\u67d0\u4e2a", "4874": "\u6709\u8fc7", "4875": "\u6392", "4876": "\u6708\u7ecf", "4877": "\u540e\u8005", "4878": "\u5f97\u4e0d\u5230", "4879": "\u5f3a\u529b", "4880": "\u5747\u5300", "4881": "\u5b9e\u65bd", "4882": "\u5c0f\u533a", "4883": "\u9732\u51fa", "4884": "\u6b67\u89c6", "4885": "\u5176\u95f4", "4886": "\u6807\u6ce8", "4887": "\u836f", "4888": "\u54ea\u6709", "4889": "\u8138\u8272", "4890": "\u4f4e\u4e8e", "4891": "\u5bf9\u8c61", "4892": "\u60a6\u534e", "4893": "\u4e0d\u5212\u7b97", "4894": "\u4ef7\u683c\u4f4e", "4895": "\u4eba\u7fa4", "4896": "\u3009", "4897": "\u9759\u9759\u5730", "4898": "\u51e0\u7ae0", "4899": "\u6709\u4e8b", "4900": "\u98ce", "4901": "\u6d3b", "4902": "\u89e6\u52a8", "4903": "\u8001\u767e\u59d3", "4904": "\u59d1\u5a18", "4905": "\u518d\u5c31\u662f", "4906": "\u53ea\u5f97", "4907": "\u6606\u660e", "4908": "\u5ba4\u5916", "4909": "\u4e0d\u6df1", "4910": "\u68c0\u9a8c", "4911": "\u50ac\u4fc3", "4912": "\u8eab\u4efd", "4913": "\u74f6", "4914": "\u5916\u7525", "4915": "\u771f\u5f97", "4916": "\u614e\u91cd", "4917": "\u53a8\u5e08", "4918": "SD", "4919": "EMS", "4920": "\u8131\u79bb", "4921": "\u4e2a\u6848", "4922": "\u56fd\u8d38", "4923": "\u5bb6\u5ead\u6559\u80b2", "4924": "\u5355\u4eba", "4925": "\u518d\u4e09", "4926": "\u5b66\u8fc7", "4927": "\u7eaa\u5ff5", "4928": "\u653e\u624b", "4929": "\u5173\u6000", "4930": "\u5475", "4931": "\u4f1a\u8ba1", "4932": "\u745c\u4f3d", "4933": "\u9000\u6b3e", "4934": "\u53ef\u89c6", "4935": "\u9884\u60f3", "4936": "\u65e7\u65e7", "4937": "\u5b89\u5e86", "4938": "\u8282\u7701", "4939": "\u4eba\u4f53", "4940": "\u5f9e", "4941": "\u7ed9\u94b1", "4942": "\u63a2\u7d22", "4943": "\u5145\u65a5", "4944": "\u4e3b\u89c2", "4945": "\u731c", "4946": "\u81ea\u63d0\u70b9", "4947": "\u5386\u7a0b", "4948": "\u6267\u884c", "4949": "\u8003\u5bdf", "4950": "\u91d1\u9e70", "4951": "\u53ef\u4e50", "4952": "\u8fc7\u591c", "4953": "\u6bcf\u672c", "4954": "\u66f4\u80fd", "4955": "\u6563", "4956": "\u4e13\u4e1a\u4eba\u58eb", "4957": "\u5361\u7247", "4958": "\u6587\u98ce", "4959": "\u4e16\u4fd7", "4960": "\u4ece\u800c", "4961": "\u4e00\u4e0d\u5c0f\u5fc3", "4962": "\u5f53\u4e0b", "4963": "\u5df4\u83f2\u7279", "4964": "\u53f3\u4e0b\u89d2", "4965": "\u91cc\u8fb9", "4966": "\u4ea7\u751f\u5171\u9e23", "4967": "B\u578b", "4968": "\u6069\u6028", "4969": "\u5f88\u7834", "4970": "\u4fdd\u517b", "4971": "\u7edd\u4e0d", "4972": "\u7a0d\u7a0d", "4973": "\u6545\u969c", "4974": "\u4e00\u4e2a\u534a", "4975": "\u6c49\u5b57", "4976": "\u5207\u6362", "4977": "\u521b\u610f", "4978": "\u65a4", "4979": "\u91ca\u653e", "4980": "4799", "4981": "04", "4982": "\u4e0a\u4e0a\u4e0b\u4e0b", "4983": "\u7ed5", "4984": "\u6d17\u8138\u76c6", "4985": "\u6982\u62ec", "4986": "\u964d\u4f4e", "4987": "\u4efd\u91cf", "4988": "\u6539\u89c2", "4989": "\u5f53\u505a", "4990": "\u7f57\u7c73", "4991": "\u684c\u4e0a", "4992": "NND", "4993": "\u9762\u5b50", "4994": "\u6536\u53d6", "4995": "\u667a\u8005", "4996": "\u8001\u5f0f", "4997": "\u53f0\u6e7e", "4998": "\u5bb9\u91cf", "4999": "\u7231\u597d", "5000": "\u4eb2\u8eab\u7ecf\u5386", "5001": "X61", "5002": "\u6b8b\u9177", "5003": "\u6001\u5ea6\u751f\u786c", "5004": "\u968f\u540e", "5005": "\u53d7\u6c14", "5006": "\u6ca1\u4e70", "5007": "\u829c\u6e56", "5008": "110", "5009": "\u751f\u65e5\u793c\u7269", "5010": "\u4e0d\u89c9", "5011": "\u7384\u4e4e", "5012": "\u90a3\u6b3e", "5013": "\u5f00\u9614", "5014": "\u523b\u5f55\u673a", "5015": "\u7a7f\u7740", "5016": "\u6df1\u591c", "5017": "\u6d88\u5931", "5018": "\u4ee3\u66ff", "5019": "\u72fc", "5020": "\u5934\u8111", "5021": "\u6587\u6863", "5022": "\u4e03\u4e2a", "5023": "\u4e0d\u5982\u8bf4\u662f", "5024": "\u5fc3\u75db", "5025": "\u4e0d\u6b62", "5026": "\u84dd\u8272", "5027": "\u4e2d\u901a", "5028": "\u661f\u5ea7", "5029": "\u96be\u4ee5\u5fcd\u53d7", "5030": "\u5916\u6ee9", "5031": "\u9707\u60ca", "5032": "\u53d8\u6001", "5033": "\u4e8b\u513f", "5034": "\u96f7\u540c", "5035": "\u5b9e\u7269", "5036": "\u5c01", "5037": "\u597d\u611f", "5038": "\u5047\u65e5\u9152\u5e97", "5039": "\u5c01\u5e95", "5040": "\u76f8\u7b26", "5041": "\u79c1\u4eba", "5042": "\u65b9\u6848", "5043": "\u51fa\u9519", "5044": "\u60ca\u5947", "5045": "\u672c\u662f", "5046": "X", "5047": "\u51fa\u8eab", "5048": "\u5beb", "5049": "\u53e4\u6587", "5050": "\u6700\u4f73", "5051": "\u810f\u4e71\u5dee", "5052": "\u6211\u88c5", "5053": "\u8001\u5148\u751f", "5054": "\u8fa9\u89e3", "5055": "\u5b59", "5056": "1500", "5057": "\u6478\u7d22", "5058": "\u54f2\u7406", "5059": "\u54b1", "5060": "\u79f0\u4e3a", "5061": "\u4ece\u4e66", "5062": "\u6392\u884c", "5063": "\u4e2d\u94f6", "5064": "\u9009\u7528", "5065": "\u810f\u516e\u516e", "5066": "\u5f97\u4ee5", "5067": "\u820d\u4e0d\u5f97", "5068": "\u843d", "5069": "\u4e0d\u6613", "5070": "\u8282\u7ea6", "5071": "\u8eab\u5904", "5072": "\u6f5c\u89c4\u5219", "5073": "\u83dc\u5f0f", "5074": "\u5feb\u901f", "5075": "\u683c\u5c40", "5076": "\u4e0b\u8f66", "5077": "\u5fc3\u5e95", "5078": "\u8bf4\u4e0d\u4e0a", "5079": "\u7761\u8863", "5080": "\u8c46\u6d46", "5081": "\u6d17\u6fa1\u65f6", "5082": "\u51b7\u6c14", "5083": "\u89e6\u611f", "5084": "\u8fd0\u8d39", "5085": "\u706b\u9505", "5086": "\u523b\u610f", "5087": "\u7c97\u7565", "5088": "\u592a\u8fc7\u5206", "5089": "\u76d8\u5b50", "5090": "\u9ad8\u5206", "5091": "\u54ac", "5092": "\u8d77\u6b65\u4ef7", "5093": "\u8d28\u7591", "5094": "\u7b7e\u6536", "5095": "\u5c0f\u672c", "5096": "\u81fa", "5097": "\u8eab", "5098": "\u4f1a\u5458\u5361", "5099": "\u5fc3\u60f3", "5100": "\u4e88\u4ee5", "5101": "\u79ef\u7d2f", "5102": "\u5b57\u6570", "5103": "\u4e4b\u5185", "5104": "\u6768", "5105": "\u547d", "5106": "\u540e\u95e8", "5107": "\u534e\u4fa8", "5108": "\u70ab", "5109": "\u662f\u975e", "5110": "\u8d1d\u62c9", "5111": "\u793e\u4f1a\u4e3b\u4e49", "5112": "\u514d\u5f97", "5113": "\u63d0\u8d77", "5114": "\u4efb\u52a1", "5115": "\u8fdb\u623f", "5116": "\u7cbe\u54c1", "5117": "\u591a\u4f59", "5118": "\u4e00\u5207\u90fd\u662f", "5119": "\u4e0d\u613f", "5120": "\u9009\u9879", "5121": "\u957f\u5b89", "5122": "\u8d70\u51fa", "5123": "\u591c\u603b\u4f1a", "5124": "\u6700\u8d35", "5125": "\u517b\u6210", "5126": "\u6d41\u6c34", "5127": "\u5927\u7406", "5128": "\u8d35\u9633", "5129": "\u5e26\u4e0a", "5130": "\u6d17\u4e0d\u6389", "5131": "\u65e5\u8ba2", "5132": "\u9000\u6362", "5133": "\u5b59\u5bc5\u8d35", "5134": "\u53eb\u9192", "5135": "\u6c89\u7a33", "5136": "492", "5137": "\u5c0f\u5deb", "5138": "15.4", "5139": "\u6495", "5140": "\u8ba2\u4e66", "5141": "\u63a5\u6536", "5142": "\u54c8\u54c8\u54c8", "5143": "\u517c\u5bb9\u6027", "5144": "\u4ed6\u4f1a", "5145": "\u7701\u94b1", "5146": "\u4e70\u4e0b\u6765", "5147": "\u51b7\u98ce", "5148": "\u75af", "5149": "\u89e3\u51b3\u4e0d\u4e86", "5150": "\u81ea\u79f0", "5151": "\u5728\u6211\u770b\u6765", "5152": "\u6807\u660e", "5153": "\u8bfb\u672c", "5154": "\u61d2", "5155": "\u627e\u51fa", "5156": "\u8270\u96be", "5157": "\u56de\u5e94", "5158": "\u5fd9\u5fd9\u788c\u788c", "5159": "Windows", "5160": "\u8840\u8ff9", "5161": "\u811a", "5162": "\u518d\u89c1", "5163": "\u589e\u5f3a", "5164": "\u51fa\u624b", "5165": "\u4e0d\u4fe1", "5166": "\u5899\u9762", "5167": "\u6cdb\u6d77", "5168": "\u5c71\u897f", "5169": "\u5ba2", "5170": "\u5148\u8bf4", "5171": "\u6210\u5c31\u611f", "5172": "\u8bf4\u4e66", "5173": "130", "5174": "\u957f\u9014\u6c7d\u8f66\u7ad9", "5175": "\u9ea6\u5f53\u52b3", "5176": "\u81ea\u6765\u6c34", "5177": "\u8fc7\u591a", "5178": "\u592a\u957f", "5179": "\u91d1", "5180": "\u8bfb\u61c2", "5181": "\u78e8\u5177", "5182": "\u4e4b\u9053", "5183": "\u4e8c\u6b21", "5184": "\u5982\u662f", "5185": "\u5dee\u4ef7", "5186": "\u5149\u789f", "5187": "\u5c0f\u4e8e", "5188": "\u653e\u4e0d\u4e0b", "5189": "\u6b63\u76f4", "5190": "\u72ec\u5230", "5191": "\u9887\u4e3a", "5192": "\u521a\u5230", "5193": "\u65e0\u7591", "5194": "\u4e00\u7ae0", "5195": "\u5170\u5dde", "5196": "\u53d8\u5f62", "5197": "GL40", "5198": "\u6700\u6df1", "5199": "\u51fa\u751f", "5200": "\u8fd4\u56de", "5201": "\u7f3a\u9875", "5202": "\u5bb6\u4e2d", "5203": "\u7ef4\u6301", "5204": "\u7528\u8bcd", "5205": "\u6709\u70b9\u513f", "5206": "220", "5207": "\u6155\u540d", "5208": "\u659c\u5bf9\u9762", "5209": "\u4eba\u7406", "5210": "\u4ea4\u901a\u4e0d\u4fbf", "5211": "\u771f\u5207", "5212": "\u5931\u8bef", "5213": "\u5165\u4f4f\u7387", "5214": "\u590f", "5215": "\u6fc0\u70c8", "5216": "\u78e8\u96be", "5217": "\u4f5c\u98ce", "5218": "\u9014\u5f84", "5219": "\u5c45\u6c11\u533a", "5220": "ibm", "5221": "\u6ca1\u597d", "5222": "\u5e95", "5223": "\u6e2f\u5e01", "5224": "\u5408\u683c", "5225": "\u5341\u4e00", "5226": "\u540d", "5227": "\u5927\u95e8\u53e3", "5228": "\u4ee5\u4fbf", "5229": "\u611f\u6027", "5230": "\u60c5\u5546", "5231": "\u5145\u5176\u91cf", "5232": "\u8fde\u540c", "5233": "\u8bbe\u5b9a", "5234": "\u91cd\u4e86", "5235": "\u55b7\u5934", "5236": "\u9a97\u5b50", "5237": "\u63a8\u4ecb", "5238": "\u79bb\u5947", "5239": "\u8425\u517b", "5240": "\u9ad8\u4ef7", "5241": "\u529e\u7406\u624b\u7eed", "5242": "\u5728\u751f\u6d3b\u4e2d", "5243": "\u4e66\u6765", "5244": "\u51e0\u7bc7", "5245": "\u5438\u70df\u533a", "5246": "\u6253\u8d25", "5247": "\u6ed1", "5248": "\u53ef\u8a00", "5249": "\u52a0\u5165", "5250": "\u80dc", "5251": "\u4f9d\u65e7", "5252": "\u521d\u4e2d\u751f", "5253": "\u6795", "5254": "\u8d39\u529b", "5255": "\u8d35\u65cf", "5256": "\u751c\u871c", "5257": "\u767e\u5bb6\u8bb2\u575b", "5258": "\u5b97\u65e8", "5259": "\u4eba\u6c14", "5260": "\u8212", "5261": "\u4e24\u6761", "5262": "\u504f\u8fdc", "5263": "\u4e94\u70b9", "5264": "\u523a\u8033", "5265": "\u5dee\u4e00\u70b9", "5266": "\u542f\u8fea", "5267": "\u8eab\u5fc3", "5268": "\u81f4\u6b49", "5269": "\u51e0", "5270": "\u6446\u5728", "5271": "\u5f00\u5230", "5272": "\u6db2\u6676\u5c4f", "5273": "\u79bb\u53bb", "5274": "\u6b22\u559c", "5275": "\u53f3\u4fa7", "5276": "\u597d\u542c", "5277": "\u53ea\u5206", "5278": "\u95e8\u5916", "5279": "\u5f88\u54cd", "5280": "\u5f80\u4e8b", "5281": "\u54c7", "5282": "\u6240\u7528", "5283": "CD", "5284": "\u6298\u6263", "5285": "\u54b1\u4eec", "5286": "\u505c\u7559", "5287": "\u5927\u7b11", "5288": "\u95e8\u9762", "5289": "\u4e0d\u5149", "5290": "\u67d4\u548c", "5291": "\u65e0\u7528", "5292": "\u80e1\u4e71", "5293": "\u6d17\u53d1\u6c34", "5294": "\u6b8b\u5fcd", "5295": "\u8861\u91cf", "5296": "\u7535\u8bdd\u8d39", "5297": "\u5f53\u5373", "5298": "\u5de5\u7a0b\u5e08", "5299": "\u5168\u9ed1", "5300": "\u505c\u6b62", "5301": "\u95ee\u597d", "5302": "\u8bf7\u52ff\u6253\u6270", "5303": "\u597d\u957f\u65f6\u95f4", "5304": "\u65e9\u665a", "5305": "\u6d17\u8138", "5306": "N270", "5307": "\u8272\u6212", "5308": "\u6536\u94b1", "5309": "\u8c08\u8c08", "5310": "\u5947\u602a\u7684\u662f", "5311": "\u82b1\u94b1", "5312": "\u8f83\u665a", "5313": "\u82b1\u56ed\u5f0f", "5314": "\u81ea\u4ee5\u4e3a\u662f", "5315": "\u9488\u5bf9\u6027", "5316": "\u542f\u8499", "5317": "\u5927\u96e8", "5318": "\u5305\u88f9", "5319": "\u9632\u6b62", "5320": "\u4ec1\u8005\u89c1\u4ec1", "5321": "\u900f\u7740", "5322": "\u5c0f\u6c14", "5323": "\u8c03\u7406", "5324": "\u62a5\u4fee", "5325": "\u624b\u540e", "5326": "\u66f4\u5dee", "5327": "\u73a9\u610f", "5328": "\u4e0d\u611f\u5174\u8da3", "5329": "\u8d70\u6765", "5330": "\u5546\u57ce", "5331": "\u90ae\u8d39", "5332": "\u6c49\u5ead", "5333": "\u673a\u6784", "5334": "\u5de5\u5177", "5335": "\u5f98\u5f8a", "5336": "\u5c42\u9762", "5337": "\u5065\u8eab\u623f", "5338": "\u6e56", "5339": "\u515c", "5340": "\u5c11\u6709", "5341": "\u95e8\u9501", "5342": "\u82b1\u8d39", "5343": "\u7eaf\u6d01", "5344": "\u62ff\u4e0b", "5345": "\u91c7\u53d6", "5346": "\u660e\u661f", "5347": "\u5c0f\u5f3a", "5348": "\u6db2\u4f53", "5349": "\u5148\u524d", "5350": "\u8d39\u4e8b", "5351": "\u9884\u5148", "5352": "\u5b89\u9038", "5353": "\u54df", "5354": "\u7075\u6d3b", "5355": "\u62a5\u4ef7", "5356": "\u5355\u4eba\u5e8a", "5357": "\u4e8f\u4e86", "5358": "\u771f\u8ba9\u4eba", "5359": "\u6559\u8bad", "5360": "SP3", "5361": "\u5305\u8f66", "5362": "\u62d0\u89d2", "5363": "\u63a2\u8ba8", "5364": "\u914d\u8d27", "5365": "\u9000\u56de", "5366": "\u51e1\u662f", "5367": "\u897f\u6e56", "5368": "\u6a21\u6837", "5369": "\u6765\u8bfb", "5370": "\u5c01\u6761", "5371": "\u65e5\u51fa", "5372": "\u6b3e\u5f0f", "5373": "\u6293\u4f4f", "5374": "\u5bfc\u6f14", "5375": "\u95f9\u5e02\u533a", "5376": "\u8d70\u4e0a", "5377": "\u5929\u58e4\u4e4b\u522b", "5378": "\u6587\u9769", "5379": "\u62fc\u51d1", "5380": "\u8bfb\u7684\u4e66", "5381": "\u656c\u4e1a", "5382": "\u94b1\u5305", "5383": "\u56db\u672c", "5384": "\u5b57\u91cc\u884c\u95f4", "5385": "\u901a\u5e38", "5386": "\u78b0\u4e0a", "5387": "\u5f88\u5168", "5388": "\u4e66\u5427", "5389": "\u5730\u53bb", "5390": "\u8eab\u4e34\u5176\u5883", "5391": "\u5357\u4eac\u8def", "5392": "\u9003\u907f", "5393": "\u5b8c\u5907", "5394": "\u6dd8\u6c14", "5395": "\u73b0\u5b9e\u751f\u6d3b", "5396": "\u7f16", "5397": "\u9047\u4e0a", "5398": "\u4e24\u95f4\u623f", "5399": "\u5c31\u884c", "5400": "\u6cd5", "5401": "\u4fbf\u6377", "5402": "\u542c\u4e0d\u61c2", "5403": "#", "5404": "$", "5405": "\u738b\u5c0f\u6ce2", "5406": "\u7f8e\u5999", "5407": "\u77ed\u6682", "5408": "\u8d8a\u662f", "5409": "\u63aa\u65bd", "5410": "\u6c42", "5411": "\u5efa\u7acb", "5412": "\u4e24\u5c81\u534a", "5413": "\u56db\u70b9", "5414": "\u501f\u52a9", "5415": "\u8f7b\u8f7b", "5416": "MSI", "5417": "\u9f50", "5418": "\u56fd\u9645\u54c1\u724c", "5419": "\u74f6\u88c5\u6c34", "5420": "\u58f0\u660e", "5421": "\u4e45\u4e45", "5422": "\u5751\u4eba", "5423": "\u5806\u780c", "5424": "\u7528\u6599", "5425": "\u5438\u53d6", "5426": "\u65e9\u8336", "5427": "\u4f53\u7cfb", "5428": "\u53bb\u53d6", "5429": "\u6e38\u73a9", "5430": "\u5305\u88c5\u76d2", "5431": "\u4e71\u7cdf\u7cdf", "5432": "\u62bd", "5433": "\u76d1\u63a7", "5434": "\u7075\u654f", "5435": "\u63a8\u9500", "5436": "\u5c31\u591f", "5437": "\u60e8\u4e0d\u5fcd\u7779", "5438": "\u6e05\u6d17", "5439": "\u5165\u53e3", "5440": "\u63a8\u5e7f", "5441": "\u56db\u5ddd", "5442": "\u751f\u52a8\u6709\u8da3", "5443": "\u9ed1\u4e4e\u4e4e", "5444": "\u5c1a\u672a", "5445": "\u4eba\u4f1a", "5446": "\u6211\u521a", "5447": "\u4e25\u5b9e", "5448": "\u5f15\u7528", "5449": "\u5934\u6655", "5450": "\u5409\u6797\u7701", "5451": "\u96ea\u82b1", "5452": "\u84dd\u5929", "5453": "\u4e0d\u6bd4", "5454": "DDR2", "5455": "\u65e5\u7acb", "5456": "\u6807\u699c", "5457": "\u7edd\u5927\u591a\u6570", "5458": "\u53cd\u611f", "5459": "\u60e8", "5460": "\u53f3\u624b", "5461": "\u953b\u70bc", "5462": "\u9677\u5165", "5463": "\u52a0\u88c5", "5464": "\u6db2\u6676", "5465": "900", "5466": "\u5408\u4f5c\u4f19\u4f34", "5467": "4699", "5468": "\u54c1\u5c1d", "5469": "\u9ad8\u5ea6", "5470": "\u70ba", "5471": "\u540d\u4e0d\u526f\u5b9e", "5472": "\u58f3", "5473": "\u6797\u8bed\u5802", "5474": "\u7761\u4e2a", "5475": "\u4e00\u676f", "5476": "\u62fc\u97f3", "5477": "\u7535\u89c6\u8282\u76ee", "5478": "\u591f\u4e0d\u4e0a", "5479": "\u7814\u8bfb", "5480": "\u5367\u5ba4", "5481": "\u6307\u51fa", "5482": "\u98ce\u6c34", "5483": "\u7a33\u5b9a\u6027", "5484": "\u96be\u514d", "5485": "\u7edf\u7edf", "5486": "\u7b2c\u4e00\u9875", "5487": "\u9644\u4ef6", "5488": "\u5904\u7406\u901f\u5ea6", "5489": "\u901d\u53bb", "5490": "\u676f\u5b50", "5491": "\u80a1\u7968", "5492": "\u53c2\u52a0", "5493": "\u6574\u5957\u4e66", "5494": "\u4e0d\u9760", "5495": "\u5f00\u53e3", "5496": "\u8272\u8c03", "5497": "\u786e\u662f", "5498": "\u53ec\u5f00", "5499": "\u518d\u6362", "5500": "\u6728\u5934", "5501": "\u5c0f\u4e1c\u897f", "5502": "\u96be\u641e", "5503": "\u7b2c\u4e00\u5370\u8c61", "5504": "\u5e73\u90ae", "5505": "\u523a\u6fc0", "5506": "\u8d25\u7b14", "5507": "\u4e0d\u66fe", "5508": "\u4ee5\u5185", "5509": "\u516d\u82af", "5510": "\u5f71\u7247", "5511": "\u8acb", "5512": "\u53f2\u6599", "5513": "\u8fdc\u79bb", "5514": "\u5355\u636e", "5515": "\u5927\u6865", "5516": "\u714e\u86cb", "5517": "\u7f3a\u5931", "5518": "\u8349\u539f", "5519": "\u6b65\u9aa4", "5520": "\u91cd\u5927", "5521": "a", "5522": "\u592a\u4e45", "5523": "\u53cd\u5012", "5524": "\u770b\u4e45", "5525": "\u7ed9\u51fa", "5526": "\u4e00\u9879", "5527": "\u8679\u53e3", "5528": "\u4e94", "5529": "\u7f8e\u5bb9", "5530": "\u4e94\u5c81", "5531": "\u7b11\u8138", "5532": "\u6295\u8d44\u8005", "5533": "\u7ea2\u7cd6", "5534": "AHCI", "5535": "\u63d0\u5021", "5536": "\u5927\u81ea\u7136", "5537": "\u8bdd\u8bed", "5538": "\u8d8a\u5927", "5539": "\u65c5\u884c\u56e2", "5540": "\u63a5\u542c", "5541": "\u8bd7", "5542": "\u5e95\u4e0b", "5543": "\u660e", "5544": "\u5fc3\u667a", "5545": "\u9897\u661f", "5546": "\u964c\u751f", "5547": "\u670d\u52d9\u614b\u5ea6", "5548": "\u7d22\u83f2\u7279", "5549": "\u4e00\u8eab", "5550": "\u6709\u7a7a", "5551": "\u770b\u6d77", "5552": "\u4e2d\u570b", "5553": "\u771f\u7406", "5554": "\u5c82\u6709\u6b64\u7406", "5555": "\u5927\u70b9", "5556": "\u4e4b\u5fc3", "5557": "\u9c81\u8fc5", "5558": "\u51cf\u80a5", "5559": "\u897f\u5b89", "5560": "\u56fd\u5e86", "5561": "\u5976\u7c89", "5562": "\u4e24\u6837", "5563": "\u6324", "5564": "\u663e\u8457", "5565": "\u665a\u5230", "5566": "\u592a\u5bbd", "5567": "\u4e25\u8083", "5568": "\u53f8\u8003", "5569": "\u524d\u6bb5\u65f6\u95f4", "5570": "\u9634\u5f71", "5571": "\u9000\u6362\u8d27", "5572": "\u4e0d\u7531\u5f97", "5573": "\u79df", "5574": "\u62a4\u80a4", "5575": "\u63a5\u7535\u6e90", "5576": "\u770b\u5f97\u51fa\u6765", "5577": "5.1", "5578": "\u7535\u5b50\u7248", "5579": "\u8bad\u7ec3", "5580": "\u7ffb\u70c2", "5581": "\u60f3\u50cf", "5582": "\u65e0\u77e5", "5583": "\u80a1", "5584": "\u843d\u5b9e", "5585": "\u7b2c\u4e00\u5957", "5586": "\u8854\u63a5", "5587": "\u76ae\u978b", "5588": "\u67dc", "5589": "\u4e70\u672c", "5590": "\u7537\u670b\u53cb", "5591": "\u4ed8\u73b0\u91d1", "5592": "\u6b22\u4e50", "5593": "\u8336\u9910\u5385", "5594": "\u4e0d\u8c61", "5595": "\u98ce\u8da3", "5596": "\u7ea0\u6b63", "5597": "\u719f\u7ec3", "5598": "\u7f57\u55e6", "5599": "\u6fc0\u52b1", "5600": "\u504f\u5dee", "5601": "\u597d\u51e0\u904d", "5602": "\u51bb\u9192", "5603": "\u6837", "5604": "\u62bd\u5c49", "5605": "\u6709\u8bef", "5606": "38", "5607": "\u516c\u4e3b", "5608": "\u72ec\u81ea", "5609": "\u4f7f\u5f97", "5610": "\u5fc3\u7406\u51c6\u5907", "5611": "\u5b64\u5355", "5612": "\u8f7b\u5fae", "5613": "\u8fd9\u7c7b", "5614": "\u4e0d\u80fd\u5bb9\u5fcd", "5615": "\u4e43\u81f3", "5616": "\u80dc\u5229", "5617": "\u822c\u7684", "5618": "\u8857\u8fb9", "5619": "\u6781\u5ea6", "5620": "\u96e8", "5621": "\u6f6e", "5622": "\u52a0\u70b9", "5623": "\u7740\u5b9e", "5624": "\u6545", "5625": "\u901a\u9053", "5626": "\u8239", "5627": "\u9ec4", "5628": "\u6e05\u9759", "5629": "\u5e02\u8bdd", "5630": "\u542f\u52a8\u9879", "5631": "\u54c4\u54c4", "5632": "\u793c\u5377", "5633": "\u8fd9\u4e8b", "5634": "\u4e0d\u89c1\u5f97", "5635": "\u5730\u5e26", "5636": "\u957f\u5b81\u8def", "5637": "\u6d88\u606f", "5638": "\u6c99\u5634", "5639": "\u4fbf\u5229\u5e97", "5640": "\u4e00\u60f3", "5641": "\u5f55\u97f3", "5642": "\u5e7f\u6cdb", "5643": "\u89e3\u51b3\u529e\u6cd5", "5644": "\u5fb7\u56fd", "5645": "\u6c34\u538b", "5646": "\u538b\u6839", "5647": "\u4e0d\u5927\u597d", "5648": "\u94dc\u9523\u6e7e", "5649": "\u63d2\u5934", "5650": "\u5185\u6709", "5651": "\u6dcb\u6f13\u5c3d\u81f4", "5652": "\u738b\u4f1f", "5653": "\u4e0d\u5931\u4e3a", "5654": "\u5149\u660e", "5655": "\u9c9c\u6d3b", "5656": "\u542c\u5f97", "5657": "s", "5658": "\u786e\u5207", "5659": "\u4e0d\u5e73", "5660": "\u4fdd\u5b58", "5661": "\u4e3b\u4efb", "5662": "\u540c\u6863\u6b21", "5663": "320", "5664": "\u542f\u793a", "5665": "\u6b63\u8d76\u4e0a", "5666": "\u5565\u610f\u601d", "5667": "\u6109\u60a6", "5668": "\u63d0\u7740", "5669": "\u65b0\u8857\u53e3", "5670": "240", "5671": "\u4f20\u627f", "5672": "\u6d01\u51c0", "5673": "\u7279\u8d28", "5674": "01", "5675": "\u5206\u4e3a", "5676": "\u4e0d\u4e4f", "5677": "\u5265\u843d", "5678": "\u6298\u75d5", "5679": "\u6df1\u5165\u6d45\u51fa", "5680": "\u6536\u5165", "5681": "\u6691\u5047", "5682": "\u5173\u4e0d\u4e0a", "5683": "\u5382\u5546", "5684": "168", "5685": "\u809a\u5b50", "5686": "\u7a97\u5b50", "5687": "\u62fc", "5688": "\u602a\u5f02", "5689": "\u529f\u8017", "5690": "\u4e0a\u7528", "5691": "\u5f88\u8d5e", "5692": "\u89ba\u5f97", "5693": "\u6211\u5011", "5694": "\u53ea\u7528", "5695": "\u7ecf\u6d4e\u5b66", "5696": "\u5b9e\u8d28\u6027", "5697": "\u9884\u7559", "5698": "\u79f0\u8d5e", "5699": "\u5438\u6536", "5700": "\u5904\u4e8b", "5701": "\u7b2c\u4e8c\u90e8", "5702": "\u53f0\u673a", "5703": "\u8d85\u957f", "5704": "\u89d2\u5ea6\u770b", "5705": "\u9664\u5916", "5706": "\u4e00\u95e8", "5707": "\u521b\u65b0", "5708": "\u7f57\u5217", "5709": "\u6f0f\u5149", "5710": "\u97e9\u5f0f", "5711": "\u7b2c\u4e94", "5712": "\u8d2d", "5713": "\u4e09\u5957", "5714": "\u4eca\u665a", "5715": "\u8c05\u89e3", "5716": "\u9633\u6714", "5717": "\u8a00\u8bba", "5718": "\u7b2c\u4e09\u65b9", "5719": "\u771f\u6709", "5720": "WIFI", "5721": "\u4e8c\u4e2a", "5722": "\u8003\u9a8c", "5723": "\u6254\u6389", "5724": "\u8fce\u63a5", "5725": "\u5927\u5927", "5726": "\u8fd9\u4e0b", "5727": "\u7ec6\u7ec6\u54c1\u5473", "5728": "\u67dc\u5b50", "5729": "\u7537\u6027", "5730": "\u6709\u7ebf", "5731": "\u9000\u4e66", "5732": "\u66f4\u6539", "5733": "\u6563\u5ba2", "5734": "\u8138\u4e0a", "5735": "\u4e24\u4efd", "5736": "\u81ea\u4e3b", "5737": "2999", "5738": "\u70ed\u9500", "5739": "\u52a0\u6df1", "5740": "\u5524\u9192", "5741": "\u85cf", "5742": "\u5f53\u4e8b\u4eba", "5743": "\u9080\u8bf7", "5744": "\u6b63\u95e8", "5745": "\u7d27\u9760", "5746": "\u81ea\u6211\u611f\u89c9", "5747": "\u4e66\u67b6\u4e0a", "5748": "\u5438\u5f15\u4f4f", "5749": "\u5f31\u70b9", "5750": "\u53bb\u6389", "5751": "\u5f88\u91cd", "5752": "\u7ea0\u7ed3", "5753": "\u6bb5\u843d", "5754": "\u524d\u524d\u540e\u540e", "5755": "\u6b66\u6c49", "5756": "\u5341\u4e2a", "5757": "\u4e00\u5e74\u7ea7", "5758": "\u5954\u817e", "5759": "\u7559\u6709", "5760": "\u6ca1\u591a\u4e45", "5761": "\u91c7\u5149", "5762": "\u5fc3\u5bd2", "5763": "basic", "5764": "\u5bf9\u672c", "5765": "\u89e6\u6478\u5f0f", "5766": "\u9762\u4e34", "5767": "\u6d17\u8863\u670d", "5768": "\u4e00\u8282", "5769": "\u4e00\u8bf4", "5770": "\u4e00\u95ee", "5771": "\u4e3a\u5565", "5772": "\u51bb", "5773": "\u6307\u793a", "5774": "\u5c71\u6c34", "5775": "\u7edf\u8ba1", "5776": "\u8d26\u5355", "5777": "\u5b9d\u85cf", "5778": "........", "5779": "\u5bb6\u4f19", "5780": "\u8b66\u5bdf", "5781": "\u6d1e", "5782": "450", "5783": "512M", "5784": "\u5723\u7ecf", "5785": "\u5185\u5fc3\u4e16\u754c", "5786": "\u6ee1\u5730", "5787": "\u9762\u5411", "5788": "\u6c11\u4e3b", "5789": "\u9ad8\u4e8e", "5790": "\u771f\u8bda\u5730", "5791": "\u884c\u6587", "5792": "\u773c\u91cc", "5793": "\u8d2a\u5a6a", "5794": "\u9752\u5c11\u5e74", "5795": "\u5904\u5728", "5796": "\u4e4b\u611f", "5797": "\u5de5\u5177\u4e66", "5798": "\u540d\u4e49", "5799": "\u5f80\u524d\u8d70", "5800": "\u8001\u4e09", "5801": "\u7ffb\u65b0", "5802": "\u00b0", "5803": "\u5fcd\u65e0\u53ef\u5fcd", "5804": "\u8bf4\u4e0d\u8fc7\u53bb", "5805": "\u4e0a\u8ba2", "5806": "\u75be\u75c5", "5807": "\u810f\u5f97", "5808": "\u8da3\u5473", "5809": "\u611f\u6069", "5810": "\u524d\u8fdb", "5811": "\u6e05\u6670\u5ea6", "5812": "\u5b89", "5813": "\u5c0a\u4e25", "5814": "\u5934\u75db", "5815": "\u6e29\u5ea6\u63a7\u5236", "5816": "\u6ca1\u8bd5", "5817": "\u5f53\u6210", "5818": "\u7eaf", "5819": "\u7528\u5177", "5820": "\u7ef4\u666f", "5821": "\u5206\u5e03", "5822": "\u5f88\u7d2f", "5823": "\u72e0", "5824": "\u6d25\u6d25\u6709\u5473", "5825": "\u521d\u8877", "5826": "\u505a\u8d77", "5827": "\u9886\u609f", "5828": "\u9505\u7089", "5829": "\u6591\u9a73", "5830": "\u4f18\u5316", "5831": "\u53d7\u7528", "5832": "\u6838\u5b9e", "5833": "\u65b0\u95fb", "5834": "\u50cf\u7d20", "5835": "\u78e8", "5836": "\u8bbe", "5837": "\u6bcf\u95f4", "5838": "\u62c9\u4e1d", "5839": "\u516b\u70b9", "5840": "\u5bf9\u4e66", "5841": "\u4e00\u56de", "5842": "\u60ca\u9192", "5843": "\u6012", "5844": "\u5f00\u672c", "5845": "\u897f\u85cf", "5846": "\u563b\u563b", "5847": "350", "5848": "\u8bc4\u7ea7", "5849": "\u67e5\u5230", "5850": "\u8bd9\u8c10", "5851": "\u505a\u4e9b", "5852": "\u666f\u623f", "5853": "\u67d4\u8f6f", "5854": "\u60f3\u4e0d\u901a", "5855": "2g", "5856": "\u5c0f\u5b9d", "5857": "\u4e3b\u6301\u4eba", "5858": "\u548c\u5e73", "5859": "\u8fc7\u5ea6", "5860": "\uff0b", "5861": "\u4e00\u5230", "5862": "\u6210\u6b63\u6bd4", "5863": "\u6c34\u7ba1", "5864": "\u4ee3\u4ef7", "5865": "\u7ba1\u9053", "5866": "\u5339\u914d", "5867": "\u7cbe\u8f9f", "5868": "\u4e00\u5ea7", "5869": "\u7528\u8f66", "5870": "\u4e00\u5473", "5871": "\u522b\u7b11", "5872": "\u592a\u597d", "5873": "\u597d\u5927", "5874": "\u5962\u534e", "5875": "\u9002\u5f53", "5876": "\u4e8c\u661f\u7ea7", "5877": "\u5f00\u706f", "5878": "\u6f0f", "5879": "\u4f1e", "5880": "\u8336\u53f6", "5881": "\u5927\u6709", "5882": "\u602a\u4e0d\u5f97", "5883": "\u8c41\u7136\u5f00\u6717", "5884": "\u65b0\u5947", "5885": "\u6bcf\u7bc7", "5886": "\u6740", "5887": "\u6846\u67b6", "5888": "\u6253\u51fb", "5889": "\u6b7b\u53bb", "5890": "\u5e73\u548c", "5891": "\u53c2\u6570", "5892": "\u6d77\u5e95", "5893": "\u6d45\u8584", "5894": "\u987a\u5e8f", "5895": "\u53ef\u7528", "5896": "\u8fd8\u653e", "5897": "\u4e0d\u6562\u82df\u540c", "5898": "\u7834\u70c2", "5899": "\u5413\u6b7b\u4eba", "5900": "\u5ef6\u4f4f", "5901": "\u6559\u7ed9", "5902": "\u5341", "5903": "LP", "5904": "\u6709\u5229\u4e8e", "5905": "\u5269", "5906": "\u4e24\u5bb6", "5907": "\u5145\u8db3", "5908": "\u6563\u70ed\u91cf", "5909": "\u6362\u53e5\u8bdd\u8bf4", "5910": "\u8f6c\u53d8", "5911": "\u73cd\u8d35", "5912": "\u4e70\u5bb6", "5913": "\u592a\u4e71", "5914": "\u4e8c\u5929", "5915": "\u8bcd\u8bed", "5916": "\u77e5\u8bc6\u9762", "5917": "\u4e24\u8005", "5918": "\u5fcd\u8010", "5919": "\u8ff7\u5931", "5920": "\u6211\u52a0", "5921": "\u5c4b\u5b50\u91cc", "5922": "\u4eba\u5199", "5923": "\u4e2a\u533a", "5924": "\u88e4\u5b50", "5925": "\u4eba\u683c", "5926": "\u65e0\u8868\u60c5", "5927": "\u5361\u62c9", "5928": "\u63a8\u6258", "5929": "\u9526\u5730", "5930": "\u4e00\u5730", "5931": "\u8c03\u8bd5", "5932": "\u533a\u5206", "5933": "\u6211\u6765", "5934": "\u5e90\u5c71", "5935": "\u652f\u6491", "5936": "\u6545\u4e8b\u6027", "5937": "\u6c14\u6e29", "5938": "\u63d0\u4e86", "5939": "\u5ff5\u5934", "5940": "\u54b8\u83dc", "5941": "\u8c61\u5f81", "5942": "\u5c5e", "5943": "\u5e8a\u5934\u67dc", "5944": "\u591a\u4ed8", "5945": "\u5ea6\u8fc7", "5946": "\u751f\u6d3b\u4e60\u60ef", "5947": "\u793c\u5238", "5948": "\u517b\u989c\u7ecf", "5949": "\u6628\u5929\u4e0b\u5348", "5950": "\u6cb3\u5357", "5951": "\u9019\u672c\u66f8", "5952": "\u6731\u5143\u748b", "5953": "\u5289\u57fa", "5954": "\u5a5a\u5bb4", "5955": "\u9001\u5305", "5956": "\u5f15\u53d1", "5957": "\u4e2d\u9014", "5958": "\u8bef\u4f1a", "5959": "\u5fc3\u810f", "5960": "58", "5961": "\u66a7\u6627", "5962": "\u6c14\u6b7b", "5963": "\u8ba4", "5964": "\u5178\u6545", "5965": "\u6253\u6270", "5966": "\u7075\u611f", "5967": "\u567c\u91cc\u556a\u5566", "5968": "\u6211\u4e8e", "5969": "\u6743\u5229", "5970": "\u6ca1\u5e26", "5971": "\u81ea\u4ece", "5972": "\u51b0\u51c9", "5973": "\u5f00\u7bb1", "5974": "\u6da8", "5975": "\u5403\u4e2a", "5976": "\u6b7b\u677f", "5977": "\u7ed3\u6676", "5978": "\u6323\u624e", "5979": "\u8017\u7535", "5980": "\u5411\u6765", "5981": "\u4e16\u4e0a", "5982": "\u7b14\u8bb0", "5983": "\u7a0d\u8d35", "5984": "\u9875\u6570", "5985": "\u5b9a\u4ef7", "5986": "\u6311\u6218", "5987": "\u718a\u638c", "5988": "\u602a\u517d", "5989": "\u653e\u6c34", "5990": "\u51fa\u7248\u5546", "5991": "\u6b32\u7f62\u4e0d\u80fd", "5992": "\u738b\u5b50", "5993": "\u541d\u556c", "5994": "\u6c89\u9ed8", "5995": "\u56fd\u4f01", "5996": "\u8986\u76d6", "5997": "\u89c1\u9762", "5998": "\u6709\u8f66", "5999": "\u611f\u4f24", "6000": "\u836f\u5e97", "6001": "\u7cbe\u529b", "6002": "\u9ad8\u67b6", "6003": "\u6c89\u6d78", "6004": "\uff38", "6005": "\u7537\u5b50", "6006": "\u4f8b\u5916", "6007": "1999", "6008": "\u962e", "6009": "\u9152\u697c", "6010": "\u989d\u5916", "6011": "\u91cd\u8981\u6027", "6012": "mm", "6013": "\u4e09\u5e74", "6014": "\u5148\u4e70", "6015": "\u8001\u7238", "6016": "\u5e73\u65e5", "6017": "\u8457", "6018": "\u4ee5\u6b64", "6019": "\u89c1\u8bc1", "6020": "\u6ce8\u5b9a", "6021": "\u5580\u4ec0", "6022": "\u63a8\u7406\u5c0f\u8bf4", "6023": "\u9519\u5b57", "6024": "\u5be6\u5728", "6025": "\u4e00\u689d", "6026": "\u73a9\u5076", "6027": "\u98de", "6028": "\u5669\u68a6", "6029": "\u79c9\u627f", "6030": "U100", "6031": "\u771f\u9898", "6032": "ATI", "6033": "\u5199\u9519", "6034": "\u7740\u6025", "6035": "88", "6036": "\u6ce1", "6037": "YY", "6038": "\u6d17\u8863\u623f", "6039": "\u670d\u52a1\u6307\u5357", "6040": "\u7981\u7528", "6041": "\u5c55\u4f1a", "6042": "\u65f6\u4e0d\u65f6", "6043": "\u607c\u706b", "6044": "\u513f\u7ae5\u8bfb\u7269", "6045": "\u8d44\u6e90", "6046": "\u653f\u7b56", "6047": "\u516d\u4e2a", "6048": "\u517b\u80b2", "6049": "8.9", "6050": "\u8fce\u5408", "6051": "\u5f53\u524d", "6052": "198", "6053": "\u51fa\u4f17", "6054": "\u8f83\u6162", "6055": "\u536b\u6d74", "6056": "\u8863\u6a71", "6057": "\u5bb6\u56ed", "6058": "\u624d\u5b9a", "6059": "\u65b0\u7248", "6060": "\u795e\u821f", "6061": "\u8c61\u4e2a", "6062": "\u5c0f\u738b\u5b50", "6063": "\u8bf4\u4e0d\u51fa", "6064": "\u773c\u7403", "6065": "\u5199\u660e", "6066": "\u5d3d", "6067": "\u8131\u843d", "6068": "\u5570\u55e6", "6069": "\u526f", "6070": "\u8bb0\u4e0d\u6e05", "6071": "\u6bcd\u4e73", "6072": "\u4fdd\u5065\u54c1", "6073": "\u513f\u7ae5\u6587\u5b66", "6074": "\u4fdd\u9669\u7bb1", "6075": "\u6ca1\u60f3", "6076": "\u4e0d\u59a8", "6077": "\u67e5\u7406", "6078": "DELL", "6079": "\u5355\u6761", "6080": "\u4e00\u9635\u5b50", "6081": "\u653e\u5047", "6082": "\u901a\u8bfb", "6083": "\u6253\u626b\u536b\u751f", "6084": "\u626d\u66f2", "6085": "\u6b23\u559c", "6086": "\u534e\u800c\u4e0d\u5b9e", "6087": "\u6253\u6e38\u620f", "6088": "\u5357", "6089": "\u5b89\u59ae", "6090": "\u4e4b\u4f5c", "6091": "\u62c9\u809a\u5b50", "6092": "\u55b7", "6093": "\u5c01\u88c5", "6094": "\u5c0f\u683c", "6095": "\u4e00\u5e26", "6096": "\u4e94\u697c", "6097": "\u6ce8\u610f\u4e8b\u9879", "6098": "\u6211\u672c", "6099": "\u4e3b\u7f16", "6100": "\u81ea\u884c", "6101": "\u9601\u4e0b", "6102": "\u5a1c\u5a1c", "6103": "\u63d2\u5165", "6104": "\u56db\u6b21", "6105": "\u50bb\u74dc", "6106": "\u4e00\u5e8a", "6107": "\u641e\u4e0d\u5b9a", "6108": "\u7b97\u4e0d\u7b97", "6109": "\u6cd5\u8bed", "6110": "\u81ea\u5b66", "6111": "\u7ebf\u8def", "6112": "\u7b14\u8c03", "6113": "\u76ae\u5b9e", "6114": "\u4e00\u5934", "6115": "\u8e29", "6116": "\u4e00\u78b0", "6117": "\u53d7\u9a97", "6118": "\u7fd8\u8d77\u6765", "6119": "\u793c\u62dc", "6120": "\u6bdb\u4e3b\u5e2d", "6121": "\u5c3d\u529b", "6122": "\u4e2d\u5c71", "6123": "\u661f\u671f\u516d", "6124": "\u65e0\u8bdd\u53ef\u8bf4", "6125": "\u70b9\u591a\u5230", "6126": "\u536b\u751f\u7eb8", "6127": "\u7897", "6128": "\u573a\u5408", "6129": "\u63cf\u7ed8", "6130": "of", "6131": "\u518d\u8ba2", "6132": "\u4e0d\u4e25", "6133": "\u505a\u6210", "6134": "\u6709\u75c5", "6135": "\u5bf9\u624b", "6136": "\u7cbe\u534e", "6137": "\u6b63\u5bf9\u7740", "6138": "\u636e\u7406\u529b\u4e89", "6139": "\u4e0d\u96be", "6140": "\u62ff\u7ed9", "6141": "\u505a\u8fc7", "6142": "\u5e10\u53f7", "6143": "\u514d\u8d39\u9001", "6144": "\u56fd\u4ea7", "6145": "\u8fea\u65af\u5c3c", "6146": "\u4e58\u5750", "6147": "\u6f14\u8bb2", "6148": "\u5d07\u62dc", "6149": "\u504f\u4f4e", "6150": "\u5927\u57ce\u5e02", "6151": "\u5b9a\u623f", "6152": "\u5df2\u7d93", "6153": "HK", "6154": "\u4e00\u8d9f", "6155": "\u7167\u6837", "6156": "\u603b\u4f53\u800c\u8a00", "6157": "\u4ee3\u5de5", "6158": "\u5fc5", "6159": "\u4e00\u53cc", "6160": "\u540d\u4e0d\u7b26\u5b9e", "6161": "\u5916\u90e8", "6162": "\u6218\u573a", "6163": "\u5929\u751f", "6164": "\u4f55\u4e3a", "6165": "\u4e2a\u4e2a", "6166": "\u5177", "6167": "it", "6168": "\u8ba1\u7b97", "6169": "2M", "6170": "\u8d44\u683c", "6171": "\u5e38\u4eba", "6172": "\u5609\u5cea\u5173", "6173": "\u5934\u9876", "6174": "\u9a6c", "6175": "\u4ec5\u6b64\u800c\u5df2", "6176": "\u51e0\u5904", "6177": "\u8d34\u7740", "6178": "\u8d70\u9053", "6179": "120G", "6180": "\u957f\u5f97", "6181": "\u4e86\u4e0d\u8d77", "6182": "\u673a\u5173", "6183": "\u8fdb\u4e0d\u4e86", "6184": "\u878d\u5165", "6185": "\u63d2\u753b", "6186": "\u7ae5\u4e66", "6187": "sp3", "6188": "\u524d\u5f80", "6189": "\u6eaa\u53e3", "6190": "\u672c\u4e8b", "6191": "\u672c\u5730\u4eba", "6192": "35", "6193": "\u5f1f\u5f1f", "6194": "\u4f18\u8d28\u670d\u52a1", "6195": "\u9a8c\u8bc1", "6196": "\u95f9\u949f", "6197": "\u8fd8\u7528", "6198": "\u53d1\u813e\u6c14", "6199": "\u641e\u4e0d\u597d", "6200": "\u4e94\u9897\u661f", "6201": "\u60e7\u6015", "6202": "\u4eba\u4e3a", "6203": "\u5bc4\u7ed9", "6204": "\u65c5\u6e38\u5c40", "6205": "\u5e02\u573a\u7ecf\u6d4e", "6206": "\u606d\u7ef4", "6207": "\u4e0d\u7ecf\u610f", "6208": "\u53d1\u70eb", "6209": "\u7ee7\u627f", "6210": "\u914d\u4e2a", "6211": "\u5386\u7ecf", "6212": "\u573a", "6213": "\u4eba\u529b\u8d44\u6e90", "6214": "\u4e0d\u914d", "6215": "\u4e07\u4e3d", "6216": "\u6700\u4e3a", "6217": "\u5168\u4f53", "6218": "\u529e\u597d", "6219": "\u90a3\u4e00\u523b", "6220": "\u9762\u662f", "6221": "\u7edd\u4e0d\u4f1a", "6222": "\u5ff5", "6223": "\u52a0\u73ed", "6224": "\u574f\u6389", "6225": "\u4f1a\u5c55\u4e2d\u5fc3", "6226": "\u60ef\u4f8b", "6227": "\u6bcf\u95f4\u623f", "6228": "\u60c5\u4fa3", "6229": "\u6863", "6230": "\u9003", "6231": "\u52a3\u8d28", "6232": "\u559c\u6b61", "6233": "\u5f88\u591a\u5e74", "6234": "\u767e\u4f73", "6235": "\u603b\u7ebf", "6236": "\u6b63\u5bf9", "6237": "\u62b5\u5236", "6238": "\u8fd0\u8f93", "6239": "\u7a7a\u7a7a", "6240": "\u5f39\u6027", "6241": "\u81ea\u9a7e\u6e38", "6242": "\u76f2\u76ee", "6243": "\u4e0d\u8d77\u773c", "6244": "\u8c28\u614e", "6245": "\u8036", "6246": "\u7d27\u90bb", "6247": "\u5317\u6d77", "6248": "\u4e13\u4e1a\u77e5\u8bc6", "6249": "\u6253\u4e86\u4e2a", "6250": "\u53d1\u5230", "6251": "\u52a0\u4e2a", "6252": "\u54c1\u8bfb", "6253": "\u89e3\u653e\u7891", "6254": "\u7cdf\u7cd5\u900f\u9876", "6255": "\u6211\u7231\u4f60", "6256": "\u5bb6\u65cf", "6257": "\u523a\u773c", "6258": "\u5bb6\u91cc\u4eba", "6259": "\u5e73\u5eb8", "6260": "\u4e24\u53e5", "6261": "\u6307\u6807", "6262": "\u5f88\u65e9", "6263": "\u7ed9\u4eba\u4ee5", "6264": "\u5236\u5b9a", "6265": "\u51b2\u6d17", "6266": "\u6361", "6267": "\u770b\u5934", "6268": "\u5934\u4e0a", "6269": "\u4e2a\u4eba\u89c2\u70b9", "6270": "\u95f9\u5e02", "6271": "\u535a\u7269\u9986", "6272": "\u5171\u7528", "6273": "\u5e38\u4f4f", "6274": "\u4e8c\u5e74\u7ea7", "6275": "\u6b7b\u4ea1", "6276": "\u949f\u624d", "6277": "\u4e0d\u5c3d\u4eba\u610f", "6278": "\u6d17\u6da4", "6279": "\u5f71\u97f3", "6280": "\u6328", "6281": "\u4e0d\u51fa", "6282": "\u5fc5\u5907", "6283": "\u5305\u5bb9", "6284": "\u4f1a\u4f4f", "6285": "\u4e0d\u7075\u654f", "6286": "\u6cdb\u6cdb\u800c\u8c08", "6287": "\u9759\u9759\u7684", "6288": "\u4fa7", "6289": "\u7537\u670d\u52a1\u5458", "6290": "\u7406\u776c", "6291": "\u5c0f\u5305", "6292": "\u88cf", "6293": "\u5496\u5561\u5385", "6294": "\u4e8f", "6295": "\u623f\u79df", "6296": "\u9999\u8549", "6297": "\u679c\u7bee", "6298": "\u5e38\u7528\u8f6f\u4ef6", "6299": "\u6293", "6300": "\u5356\u573a", "6301": "\u79d1\u6280", "6302": "\u5168\u5929", "6303": "\u8eab\u4e3a", "6304": "\u8033\u6735", "6305": "\u5f53\u9762", "6306": "\u7528\u7528", "6307": "\u4e00\u6e05\u4e8c\u695a", "6308": "\u8d77\u4f0f", "6309": "\u9a82", "6310": "\u5668", "6311": "\u7b49\u5019", "6312": "\u6210\u5e74\u4eba", "6313": "\u7b28\u91cd", "6314": "\u975e\u5e38\u9ad8\u5174", "6315": "\u8d54", "6316": "\u53ef\u4e0d\u662f", "6317": "\u62fc\u5199\u9519\u8bef", "6318": "\u6d77\u62a5", "6319": "\u541b\u60a6", "6320": "\u70ed\u5f97", "6321": "\u66f2\u6298", "6322": "\u7535\u8111\u7cfb\u7edf", "6323": "\u6d77\u5929", "6324": "\u52a8\u753b\u7247", "6325": "\u6362\u5230", "6326": "\u597d\u51e0", "6327": "\u5fc3\u7231", "6328": "\u4e09\u5c42", "6329": "\u5411\u524d", "6330": "\u53e3\u7891", "6331": "\u9664", "6332": "\u4e0d\u53d8", "6333": "HD", "6334": "\u7ca4\u8bed", "6335": "\u63d0\u95ee", "6336": "\u63a5\u5f85\u5458", "6337": "\u4e00\u4fa7", "6338": "\u8fdc\u5904", "6339": "\u6700\u5c11", "6340": "\u591a\u957f\u65f6\u95f4", "6341": "\u5206\u7c7b", "6342": "\u62db\u5f85", "6343": "\u65e0\u52a8\u4e8e\u8877", "6344": "\u5927\u672c", "6345": "\u9752\u86d9", "6346": "\u6ee1\u6000", "6347": "\u5f88\u8fdc", "6348": "\u623f\u524d", "6349": "\u6742\u97f3", "6350": "\u4f5b\u6559", "6351": "\u7ea2\u65d7", "6352": "\u624d\u534e", "6353": "\u95ee\u8def", "6354": "\u6765\u6e90", "6355": "\u667a\u8005\u89c1\u667a", "6356": "\u7f16\u6392", "6357": "\u865a\u5047", "6358": "\u80fd\u91cf", "6359": "\u5b57\u8ff9", "6360": "\u53d1\u9519", "6361": "\u8868", "6362": "39", "6363": "\u5468\u56db", "6364": "\u4e94\u5929", "6365": "\u53e4\u4eba", "6366": "\u591a\u52a0", "6367": "\u5f04\u810f\u4e86", "6368": "\u53cc\u65e9", "6369": "\u4e00\u6b21\u6b21", "6370": "\u62e7", "6371": "\u610f\u5927\u5229", "6372": "\u5f62\u540c\u865a\u8bbe", "6373": "120", "6374": "\u770b\u7247", "6375": "\u52a8\u4eba", "6376": "\u667a\u5546", "6377": "\u6700\u65e9", "6378": "\u65e5\u4f4f", "6379": "\u6709\u6240\u6539\u5584", "6380": "\u8584\u8584\u7684", "6381": "\u4e70\u5355", "6382": "\u54c1\u4f4d", "6383": "\u8bbe\u6709", "6384": "\u5ef6\u957f", "6385": "\u4e8c\u5341\u5e74", "6386": "\u8fde\u8f7d", "6387": "\u4f1a\u513f", "6388": "\u614e\u91cd\u8003\u8651", "6389": "\u9875\u7801", "6390": "\u662f\u5426\u662f", "6391": "\u62c9\u8428", "6392": "\u529b\u6c14", "6393": "\u9001\u8d27\u4e0a\u95e8", "6394": "\u8d3a\u987f", "6395": "\u5341\u4e8c\u70b9", "6396": "\u4fe1\u7528", "6397": "\u6210\u7ee9", "6398": "\u6307\u5f15", "6399": "A\u578b", "6400": "\u4e16\u4eba", "6401": "\u603b\u5728", "6402": "\u56f0\u6270", "6403": "\u6ca1\u5b8c", "6404": "\u6df1\u6c89", "6405": "\u7279\u6709", "6406": "\u4f20\u5947", "6407": "\u5e73\u9065", "6408": "\u4e0a\u8857", "6409": "\u8981\u7528", "6410": "\u91d1\u58eb\u987f", "6411": "\u8b6c\u5982", "6412": "\u6362\u6765", "6413": "\u534a\u5e74", "6414": "\u5730\u4e0b\u5ba4", "6415": "\u5c40\u4fc3", "6416": "\u8f6c\u8ba9", "6417": "\u7ae5\u8da3", "6418": "\u521b\u4f5c", "6419": "\u5305\u88c5\u7bb1", "6420": "\u4ed4\u7ec6\u68c0\u67e5", "6421": "\u5f88\u9177", "6422": "D\u76d8", "6423": "V", "6424": "\u5fc3\u58f0", "6425": "\u5403\u9971", "6426": "\u7eff\u5316", "6427": "\u7f51\u7edc\u5c0f\u8bf4", "6428": "\u95f4\u63a5", "6429": "\u6613\u4e8e", "6430": "\u8d44\u672c", "6431": "\u91d1\u878d", "6432": "\u534e\u5c14\u8857", "6433": "\u7cbe\u5fc3", "6434": "\u9884\u7ea6", "6435": "\u7535\u6c60\u5bb9\u91cf", "6436": "\u5f3a\u8feb", "6437": "2005", "6438": "\u4e0a\u5468", "6439": "office", "6440": "\u590d\u8ff0", "6441": "\u65b0\u88c5", "6442": "\u9634\u8c0b", "6443": "\u8be6\u5c3d", "6444": "\u56de\u5934", "6445": "\u6b63\u53f2", "6446": "\u5ffd\u7136", "6447": "\u8bb0\u5fc6\u529b", "6448": "\u6842\u6797", "6449": "\u8bf4\u6765", "6450": "\u80fd\u4e3a", "6451": "\u7247\u5b50", "6452": "\u4e00\u7ffb", "6453": "\u5468\u65e5", "6454": "\u89e3\u8131", "6455": "\u8fd8\u4f1a\u6765", "6456": "\u770b\u4e00\u904d", "6457": "\u6e05", "6458": "\u5404\u7c7b", "6459": "\u5feb\u5feb", "6460": "\u5468\u516d", "6461": "\u6e29\u67d4", "6462": "\u7231\u4e0a", "6463": "\u9aa8\u5b50\u91cc", "6464": "\u7206\u53d1", "6465": "\u6709\u94b1", "6466": "\u86ee\u6a2a", "6467": "\u670d\u52a1\u4e1a", "6468": "\u5ea6\u5047\u6751", "6469": "\u5199\u5b57\u697c", "6470": "1.8", "6471": "\u6d3e\u9001", "6472": "\u4e0a\u83dc", "6473": "\u523b\u9aa8\u94ed\u5fc3", "6474": "\u8dcc", "6475": "49", "6476": "\u503c\u5f97\u79f0\u8d5e", "6477": "\u4ed3\u4fc3", "6478": "\u8fd9\u4ef6", "6479": "\u6ca1\u6362", "6480": "\u5bb9\u5fcd", "6481": "\u7cbe\u88c5", "6482": "\u5217\u4e3e", "6483": "\u5f71\u54cd\u529b", "6484": "\u5206\u79bb", "6485": "\u6ca1\u9001", "6486": "\u4e0d\u5728\u4e4e", "6487": "\u5957\u7528", "6488": "\u8fd1\u51e0\u5e74", "6489": "\u8fde\u4e2a", "6490": "5000", "6491": "\u63d0\u53ca", "6492": "\u5c06\u4f1a", "6493": "\u524d\u5385", "6494": "\u8425\u9500", "6495": "\u65b0\u673a", "6496": "\u5fe7\u4f24", "6497": "\u7a7f\u8863\u670d", "6498": "\u683c\u8c03", "6499": "\u732b\u548c\u8001\u9f20", "6500": "\u6beb\u4e0d", "6501": "\u95f4\u623f", "6502": "\u5a74\u513f", "6503": "\u672c\u80fd", "6504": "\u7406\u76f4\u6c14\u58ee", "6505": "\u62ac", "6506": "\u8d85\u4e4e", "6507": "\u98df\u5802", "6508": "\u6e05\u6f88", "6509": "\u8003\u8651\u4e00\u4e0b", "6510": "\u6e38", "6511": "\u65e0\u5c3d", "6512": "\u6b3a\u8bc8", "6513": "\u70b9\u6ef4", "6514": "\u8bef\u89e3", "6515": "\u8001\u5144", "6516": "\u6c64", "6517": "\u5e97\u5927\u6b3a\u5ba2", "6518": "\u9a6c\u60a6\u51cc", "6519": "\u9177\u777f", "6520": "\u8bf4\u8d77", "6521": "\u81ea\u9a7e", "6522": "\u8fd8\u8fc7\u5f97\u53bb", "6523": "\u57fa\u4e8e", "6524": "\u8f6c\u8f74", "6525": "\u76f4", "6526": "\u7537\u58eb", "6527": "\u8bd5\u673a", "6528": "\u9b3c", "6529": "\u5256\u6790", "6530": "\u5199\u7ed9", "6531": "\u5b50\u5973", "6532": "\u65e0\u4ece", "6533": "\u4e00\u6392", "6534": "\u7ad6", "6535": "\u4e00\u500d", "6536": "\u53e5", "6537": "\u62a5\u590d", "6538": "\u7ea6\u5b9a", "6539": "\u6cbb\u5b66", "6540": "\u901a", "6541": "\u9ad8\u5ea6\u91cd\u89c6", "6542": "\u66f4\u4f55\u51b5", "6543": "\u8718\u86db", "6544": "\u63d2\u66f2", "6545": "\u7b2c\u4e8c\u4e2a", "6546": "\u9493\u9c7c", "6547": "\u79d2", "6548": "\u521a\u8fdb", "6549": "\u558a", "6550": "\u826f\u591a", "6551": "\u95f4\u9694", "6552": "\u4f20\u8fbe", "6553": "\u771f\u60c5", "6554": "\u67e5\u67e5", "6555": "\u4f18\u5148", "6556": "\u9694\u5929", "6557": "ing", "6558": "\u6d41\u7a0b", "6559": "\u55ce", "6560": "\u8a72", "6561": "\u6709\u591f", "6562": "\u91d1\u534e", "6563": "\u5236\u9020", "6564": "09", "6565": "\u52a0\u5de5", "6566": "\u7535\u68af\u95f4", "6567": "\u5b9e\u5730", "6568": "\u6bdb\u53d1", "6569": "\u6851\u62ff\u623f", "6570": "\u5f52\u7c7b", "6571": "\u8d76\u8d70", "6572": "\u521d", "6573": "\u51b7\u5f97", "6574": "\u529f\u529b", "6575": "\u5bfc\u6e38", "6576": "\u8f66\u91cc", "6577": "\u8fc7\u5f80", "6578": "\u767d\u4e70", "6579": "\u573a\u4e2d", "6580": "\u5206\u914d", "6581": "\u9760\u7740", "6582": "home", "6583": "\u7ba1\u7406\u6c34\u5e73", "6584": "\u5c0f\u5df4", "6585": "\u624b\u6258", "6586": "\u6fc0\u60c5", "6587": "\u5982\u6f6e", "6588": "\u53ef\u8c13", "6589": "\u53ef\u6c14", "6590": "\u597d\u89c9", "6591": "\u4e03\u70b9", "6592": "\u503c\u5f97\u4e00\u63d0", "6593": "\u7535\u5b50\u4ea7\u54c1", "6594": "\u6240\u5728", "6595": "\u94f6\u8272", "6596": "\u5e72\u5417", "6597": "\u6cbb\u75c5", "6598": "\u6d41", "6599": "\u8fc7\u9053", "6600": "\u4e0d\u8fd1", "6601": "\u60f3\u6362", "6602": "\u8868\u6f14", "6603": "\u611f\u67d3", "6604": "\u52a0\u4e4b", "6605": "3470", "6606": "\u73a9\u800d", "6607": "\u573a\u6240", "6608": "\u5c71\u5be8", "6609": "\u5e97\u91cc", "6610": "\u5171\u4eab", "6611": "\u7d20\u517b", "6612": "\u84dd\u661f", "6613": "\u6234\u5c14", "6614": "\u8033\u8fb9", "6615": "\u6d6e\u8e81", "6616": "\u540e\u7eed", "6617": "\u56de\u62a5", "6618": "\u5e73\u7b49", "6619": "\u521a\u5165", "6620": "\u517c", "6621": "IT", "6622": "\u4e5d\u4e2a", "6623": "\u4f4f\u8fdb", "6624": "\u7559\u610f", "6625": "\u9876\u7ea7", "6626": "\u516b\u4e2a", "6627": "\u5e7d\u9759", "6628": "\u5ead\u9662", "6629": "\u5e73", "6630": "\u4e66\u67b6", "6631": "\u4e70\u70b9", "6632": "\u4e0d\u77e5\u4e0d\u89c9", "6633": "\u8f6c\u4e2a", "6634": "\u611f\u592a\u5f3a", "6635": "\u8f83\u5f3a", "6636": "\u82cd\u767d", "6637": "\u4f53\u5473", "6638": "\u8def\u7531\u5668", "6639": "\u53f2", "6640": "\u5b9e\u9a8c", "6641": "\u6210\u65e7", "6642": "\u4f46\u79bb", "6643": "\u957f\u9014\u7535\u8bdd", "6644": "\u60f3\u6765", "6645": "\u6beb\u65e0\u4ef7\u503c", "6646": "\u6ca1\u53d1", "6647": "ASUS", "6648": "\u7528\u4e8e", "6649": "\u80a1\u5e02", "6650": "\u7537\u5b69\u5b50", "6651": "\u76ae\u76ae", "6652": "\u624b\u8155", "6653": "\u610f\u6599", "6654": "\u773c\u4e2d", "6655": "GM45", "6656": "\u6d17\u6fa1\u95f4", "6657": "\u5bf9\u4ed8", "6658": "\u7a7f\u68ad", "6659": "\u4ef7\u683c\u516c\u9053", "6660": "\u4ece\u5934\u5230\u5c3e", "6661": "\u5ffd\u51b7\u5ffd\u70ed", "6662": "\u7f8e\u5b66", "6663": "\u540e\u6765\u8005", "6664": "\u5b9c\u5bb6", "6665": "\u74f6\u9888", "6666": "\u9078\u64c7", "6667": "\u7c73\u7c89", "6668": "\u5e74\u9f84\u6bb5", "6669": "\u4e5f\u7f62", "6670": "\u5148\u540e", "6671": "\u8fd9\u4efd", "6672": "\u52a8\u4e0d\u52a8", "6673": "\u54cd\u5e94", "6674": "\u4eba\u53e3", "6675": "\u4e24\u518c", "6676": "\u5f02\u5e38", "6677": "\u8def\u8fc7", "6678": "\u53d1\u90ae\u4ef6", "6679": "\u53bf\u57ce", "6680": "\u591c", "6681": "\u65e9\u65e9", "6682": "\u83b7\u76ca", "6683": "\uff1c", "6684": "\uff1e", "6685": "\u6389\u4e0b\u6765", "6686": "\u6df7\u6742", "6687": "\u65b0\u6362", "6688": "\u4e24\u9875", "6689": "you", "6690": "\u8db3\u8ff9", "6691": "\u793e", "6692": "\u8d76\u65f6\u95f4", "6693": "\u597d\u574f", "6694": "03", "6695": "\u516d\u4e00", "6696": "\u8f83\u957f", "6697": "\u7231\u62a4", "6698": "\u6587\u4eba", "6699": "\u7b14\u6cd5", "6700": "\u4e0d\u5b89", "6701": "\u8ff9\u8c61", "6702": "\u610f\u60f3\u4e0d\u5230", "6703": "\u5341\u51e0\u9875", "6704": "\u8ff7\u5bab", "6705": "\u5dee\u5dee", "6706": "\u63d2\u4e0a", "6707": "\u8010\u770b", "6708": "720P", "6709": "\u672f\u8bed", "6710": "\u65b0\u6708", "6711": "\u670d\u52d9\u54e1", "6712": "\u4e00\u7ebf", "6713": "\u5b9a\u4e49", "6714": "\u697c\u9876", "6715": "\u9065\u8fdc", "6716": "\u53e4\u5178", "6717": "\u610f\u5883", "6718": "\u8003", "6719": "\u5b66\u8bf4", "6720": "\u6b65", "6721": "LOGO", "6722": "\u5584", "6723": "\u8d34\u5b8c", "6724": "\u54c1", "6725": "\u9ec4\u91d1\u5468", "6726": "\u6ce1\u6e29\u6cc9", "6727": "\u62bd\u6c34\u9a6c\u6876", "6728": "\u9644\u6709", "6729": "380", "6730": "\u4e00\u542c", "6731": "51", "6732": "T400", "6733": "\u8d1f", "6734": "\u62fc\u547d", "6735": "\u6253\u9020", "6736": "\u4e4b\u65c5", "6737": "\u8db3\u7597", "6738": "\u9ec4\u6cb3", "6739": "\u4fdd\u969c", "6740": "\u5404\u6709", "6741": "\u76f8\u5b88", "6742": "\u8bc1\u4e66", "6743": "\u4e0a\u5347", "6744": "\u5f97\u6765", "6745": "\u4e2d\u610f", "6746": "\u9e1f", "6747": "\u5e72\u561b", "6748": "\u6d77\u60a6", "6749": "\u6cf0\u5b89", "6750": "\u51b0\u51b7", "6751": "\u5355\u5355", "6752": "\u5c40\u9650\u6027", "6753": "\u623f\u94b1", "6754": "\u4fe1\u670d", "6755": "\u7f51\u8bc4", "6756": "\u897f\u5317", "6757": "\u5976\u5976", "6758": "\u88f8\u673a", "6759": "\u9aa8\u5934", "6760": "\u6dd8\u5b9d", "6761": "\u516c\u7528", "6762": "\u53d1\u7ed9", "6763": "\u573a\u4e0a", "6764": "\u8bfb\u5230", "6765": "\u73ed\u4e3b\u4efb", "6766": "\u9753\u4e3d", "6767": "\u56fd\u8109", "6768": "\u6a59\u6c41", "6769": "\u5927\u592b", "6770": "05", "6771": "\u6b64\u79cd", "6772": "\u6606\u866b", "6773": "\u7edd\u671b", "6774": "\u7cbe\u82f1", "6775": "\u7504\u5bf0", "6776": "\u7236\u8f88", "6777": "\u5f3a\u70c8\u6297\u8bae", "6778": "\u4e50\u56ed", "6779": "SL400", "6780": "\u6211\u67e5", "6781": "\u5468\u4e00", "6782": "\u7b11\u58f0", "6783": "\u9f13\u638c", "6784": "\u5c71\u5e84", "6785": "\u6709\u52a9\u4e8e", "6786": "40%", "6787": "\u98de\u5929", "6788": "\u771f\u6655", "6789": "\u8840\u578b", "6790": "700", "6791": "\u7eaf\u771f", "6792": "\u4e94\u5b98", "6793": "\u9ad2", "6794": "\u5e02\u653f\u5e9c", "6795": "\u6807\u79f0", "6796": "\u6377\u5f84", "6797": "\u5f53\u73ed", "6798": "\u4e00\u53e3", "6799": "\u8bda\u610f", "6800": "\u5168\u80fd", "6801": "3.5", "6802": "\u6321\u4f4f", "6803": "\u6cd5\u56fd", "6804": "\u6bcf\u5bb6", "6805": "\u504f\u6fc0", "6806": "\u7410\u788e", "6807": "\u559d\u6c34", "6808": "\u5c0f\u58f0", "6809": "\u540d\u58f0", "6810": "\u6cb9\u70df\u5473", "6811": "\u6362\u4e0a", "6812": "\u98ce\u8303", "6813": "\u5149\u6ed1", "6814": "-----", "6815": "\u6362\u6c14", "6816": "\u73b0\u4ee3\u5316", "6817": "98", "6818": "\u8f6c\u63a5", "6819": "\u8bf4\u670d", "6820": "\u603b\u80fd", "6821": "\u9500\u552e\u91cf", "6822": "\u4e0d\u95ee", "6823": "\u51d1\u5408\u7740", "6824": "\u7f51\u5427", "6825": "\u5c0f\u83dc", "6826": "\u7a00\u996d", "6827": "\u8bf7\u6c42", "6828": "\u718f", "6829": "\u8fd4\u73b0", "6830": "\u59a8\u788d", "6831": "\u4ea4\u4ee3", "6832": "\u8bf4\u4e0d\u5b9a", "6833": "\u5931\u843d", "6834": "hotel", "6835": "is", "6836": "1394", "6837": "\u591a\u5206", "6838": "\u9662\u5b50", "6839": "\u91d1\u5361", "6840": "\u8bc1\u636e", "6841": "\u5e16\u5b50", "6842": "\u73b0", "6843": "\u5982\u80fd", "6844": "\u6280\u80fd", "6845": "\u62c9\u5f00", "6846": "\u610f\u5473\u7740", "6847": "\u5185\u91cc", "6848": "\u889c\u5b50", "6849": "\u6ca1\u6765", "6850": "\u5bbd\u5927", "6851": "\u5de5\u4f5c\u6548\u7387", "6852": "\u6781\u4f4e", "6853": "\u6700\u7f8e", "6854": "\u8282\u594f", "6855": "\u8d5e\u626c", "6856": "\u5f15\u5b50", "6857": "\u7c7b\u4e66", "6858": "\u5fc3\u53bb", "6859": "\u60b2\u60c5", "6860": "\u63ea\u5fc3", "6861": "\u90a3\u53e5", "6862": "\u4ec0\u9ebc", "6863": "\u5c0f\u6c7d\u8f66", "6864": "\u516d\u697c", "6865": "\u6bcf\u5f53", "6866": "\u539f\u914d", "6867": "\u542c\u542c", "6868": "\u5149\u987e", "6869": "\u53cb\u8fbe", "6870": "34", "6871": "\u4eba\u80fd", "6872": "\u4ee3", "6873": "\u516c\u5171\u6c7d\u8f66", "6874": "\u7cbe\u901a", "6875": "\u6b27\u6d32", "6876": "\u9152\u5e97\u5ba2\u623f", "6877": "\u5fb7", "6878": "\u4e2d\u5eb8", "6879": "\u4e0b\u5c5e", "6880": "\u674e", "6881": "\u613f", "6882": "\u521d\u7ea7", "6883": "\u9694\u5f00", "6884": "\u65e0\u9700", "6885": "\u8f86", "6886": "\u603b\u7ecf\u7406", "6887": "\u6216\u591a\u6216\u5c11", "6888": "\u6251", "6889": "\u6263\u9664", "6890": "\u6cb9\u6f06\u5473", "6891": "\u5305\u5934", "6892": "\u8f66\u8d39", "6893": "\u5143\u591a", "6894": "\u8f7b\u8f68", "6895": "\u8bc9\u8bf4", "6896": "\u7b2c\u4e00\u53f0", "6897": "\u6e9c\u8fbe", "6898": "\u5b98\u5458", "6899": "\u5c45\u591a", "6900": "\u83dc\u8c31", "6901": "\u90bb\u5c45", "6902": "\u5fb7\u884c", "6903": "\u52b1\u5fd7", "6904": "3000", "6905": "\u70b9\u51fb", "6906": "\u4e13\u4e1a\u6027", "6907": "\u4e00\u5e45", "6908": "\u5448\u73b0", "6909": "\u758f\u5ffd", "6910": "\u95ee\u8fc7", "6911": "\u627f\u5305", "6912": "4G", "6913": "\u9f99\u95e8\u77f3\u7a9f", "6914": "\u6613\u5b66", "6915": "\u5b89\u5fc3", "6916": "\u62d6\u6c93", "6917": "\u804c\u4e1a\u9053\u5fb7", "6918": "\u5c0f\u7ea2\u70b9", "6919": "\u6536\u8d2d", "6920": "\u4e8b\u4f8b", "6921": "\u5ba1\u89c6", "6922": "\u519c\u6c11", "6923": "\u66b4\u9732", "6924": "\u626f", "6925": "\u4e8c\u624b", "6926": "\u5c0f\u5e97", "6927": "\u592a\u539a", "6928": "\u7eaa\u5b9e", "6929": "\u5fc5\u5b9a", "6930": "\u6587\u5b66\u4f5c\u54c1", "6931": "\u7edd", "6932": "\u6d3b\u5728", "6933": "\u62d4", "6934": "\u6807\u7684", "6935": "\u6708\u5e95", "6936": "\u56de\u5f52", "6937": "\u504f\u5411", "6938": "\u63a9\u76d6", "6939": "\u5e26\u8def", "6940": "\u9ad8\u51fa", "6941": "\u526a", "6942": "390", "6943": "\u54a3\u5f53", "6944": "\u9019\u5bb6", "6945": "\u4e0d\u932f", "6946": "\u604d\u7136\u5927\u609f", "6947": "\u6c5f\u5357", "6948": "\u8bd5\u9a8c", "6949": "\u62a5\u4ee5", "6950": "\u5149\u8292", "6951": "\u5047\u88c5", "6952": "\u6e05\u7a7a", "6953": "\u7ec6\u7ec6\u7684", "6954": "\u5fae\u7b11\u670d\u52a1", "6955": "\u4ef7\u683c\u4f18\u52bf", "6956": "\u5f88\u9753", "6957": "\u7535\u8111\u5305", "6958": "\u90ae\u7bb1", "6959": "\u884c\u8d70", "6960": "\u5730\u4e70", "6961": "\u5730\u6f0f", "6962": "\u6469\u64e6", "6963": "\u6709\u60c5", "6964": "\u5b9d\u8d1d\u5973\u513f", "6965": "\u98ce\u9669", "6966": "\u5206\u5de5", "6967": "\u6d3b\u4e0b\u53bb", "6968": "\u4e0a\u90e8", "6969": "\u5435\u6b7b", "6970": "\u534a\u8fb9", "6971": "\u5f53\u771f", "6972": "\u6709\u7406", "6973": "\u529e\u516c\u697c", "6974": "\u7ed3\u8bba", "6975": "\u5ba2\u8fd0\u7ad9", "6976": "\u4e09\u89d2\u5f62", "6977": "\u7535\u91cf", "6978": "\u6263\u6b3e", "6979": "\u597d\u597d\u5b66\u4e60", "6980": "\u9884\u7b97", "6981": "\u4e0e\u4f17\u4e0d\u540c", "6982": "logo", "6983": "\u5199\u4e0b", "6984": "\u545c\u545c", "6985": "\u795e\u8bdd", "6986": "\u8010\u4eba\u5bfb\u5473", "6987": "\u64cd\u4f5c\u6027", "6988": "\u9b54\u6cd5", "6989": "\u8c03\u76ae", "6990": "\u7092\u5f97", "6991": "\u300c", "6992": "\u300d", "6993": "\u6765\u6362", "6994": "\u534a\u591c\u4e09\u66f4", "6995": "\u8bc6\u5b57", "6996": "\u4f5c\u5e8f", "6997": "\u771f\u60f3", "6998": "\u8d5e\u53f9", "6999": "\u767e\u59d3", "7000": "\u5c0f\u5973\u751f", "7001": "\u6293\u72c2", "7002": "\u8dcc\u5b95\u8d77\u4f0f", "7003": "498", "7004": "\u4efb", "7005": "\u5230\u6781\u70b9", "7006": "\u6b63\u6587", "7007": "\u65bc", "7008": "\u7a7f\u8fc7", "7009": "\u505c\u6c34", "7010": "\u6c5f\u8fb9", "7011": "\u4e0a\u5b98", "7012": "75", "7013": "\u90a3\u53f0", "7014": "\u9017", "7015": "\u8be1\u5f02", "7016": "\u62e6\u8f66", "7017": "\u975e\u5e38\u5c11", "7018": "\u95e8\u94c3", "7019": "\u8bf4\u4f1a", "7020": "\u6545\u5bab", "7021": "\u7eaa\u5f55\u7247", "7022": "\u800c\u6210", "7023": "4399", "7024": "\u54e5\u4eec", "7025": "\u8d77\u6b65", "7026": "\u8bfb\u5f97", "7027": "\u5bcc\u6709", "7028": "\u6e05\u6668", "7029": "\u95fb\u5230", "7030": "\u6d53\u6d53\u7684", "7031": "\u9053\u5fb7", "7032": "3.2", "7033": "\u6574\u4fee", "7034": "\u7b7e\u540d", "7035": "\u53ef\u5426", "7036": "\u5148\u88c5", "7037": "512", "7038": "\u5e8a\u94fa", "7039": "\u4ece\u8fdb", "7040": "\u5927\u6e05\u65e9", "7041": "\u5b9e\u5219", "7042": "\u65e0\u60c5", "7043": "\u7528\u60c5", "7044": "\u4f5c\u4e1a", "7045": "\u58f0\u54cd", "7046": "\u7ee7\u800c", "7047": "\u914d\u4e0d\u4e0a", "7048": "\u4e0d\u8c61\u8bdd", "7049": "\u4e09\u904d", "7050": "\u5634\u91cc", "7051": "\u5916\u5305", "7052": "\u7591\u60d1", "7053": "\u4e00\u770b\u518d\u770b", "7054": "\u8303\u4f8b", "7055": "\u6da8\u4ef7", "7056": "\u672a\u80fd", "7057": "\u53ea\u503c", "7058": "\u81ea\u52a8\u5173\u673a", "7059": "\u76f8\u53bb\u751a\u8fdc", "7060": "\u75f4\u8ff7", "7061": "\u51e0\u5341\u5e74", "7062": "\u9ebb\u6728", "7063": "\u6d6e\u73b0", "7064": "\u508d\u665a", "7065": "\u4f53\u79ef\u5c0f", "7066": "\u540c\u7ea7", "7067": "\u547d\u4ee4", "7068": "\u67f3\u6c5f", "7069": "\u5206\u8fa8", "7070": "\u4e8c\u5341", "7071": "\u8def\u7ebf", "7072": "\u4e13\u4eba", "7073": "\u522e", "7074": "\u5f00\u5e55\u5f0f", "7075": "\u4f59\u989d", "7076": "\u5171\u6709", "7077": "\u4ea7", "7078": "\u4e0d\u5fcd", "7079": "\u8d2f\u7a7f", "7080": "\u539f\u59cb", "7081": "\u79f0\u53f7", "7082": "\u4e24\u74f6", "7083": "\u53cd\u5dee", "7084": "\u4e0a\u7f51\u5361", "7085": "\u672c\u610f", "7086": "\u5197\u957f", "7087": "\uff25", "7088": "\uff24", "7089": "\u56db\u5927", "7090": "\u7edf\u4e00", "7091": "\u6c34\u7eb9", "7092": "\u808c\u7406", "7093": "\u77ed\u7bc7\u5c0f\u8bf4", "7094": "\u5fc5\u8bfb", "7095": "\u624b\u8fb9", "7096": "\u5957\u8def", "7097": "\u753b\u5f97", "7098": "\u968f\u8eab\u5e26", "7099": "\u4e0d\u70e6", "7100": "\u7b80\u7b80\u5355\u5355", "7101": "\u5c0f\u518c\u5b50", "7102": "\u95f2\u6687", "7103": "\u5468\u4e94", "7104": "\u6d17\u793c", "7105": "\u5706\u6ee1", "7106": "\u6b64\u672c", "7107": "\u5546\u7528", "7108": "\u4fe1\u4ef0", "7109": "\u4ece\u4e66\u4e2d", "7110": "\u5e8a\u5934\u706f", "7111": "\u5f04\u810f", "7112": "\u8981\u82b1", "7113": "\u7535\u89c6\u53f0", "7114": "\u65ad\u7ebf", "7115": "\u810f\u810f", "7116": "\u5c11\u5f97", "7117": "\u89e6\u63a7", "7118": "\u9893\u5e9f", "7119": "\u8054", "7120": "\u560e\u5431", "7121": "\u6253\u901a", "7122": "\u4e0a\u518c", "7123": "\u9ad8\u6027\u4ef7\u6bd4", "7124": "\u771f\u6ca1\u60f3\u5230", "7125": "\u4e0b\u624b", "7126": "\u677e\u52a8", "7127": "\u5916\u5730", "7128": "\u773c", "7129": "\u98ce\u666f\u533a", "7130": "\u65a9", "7131": "\u610f\u613f", "7132": "\u6253\u5230", "7133": "\u6ca1\u4eba\u7ba1", "7134": "\u4e94\u5e74", "7135": "\u6e05\u671d", "7136": "\u4f55\u5904", "7137": "\u6210\u8bed", "7138": "\u8981\u5b66", "7139": "\u841d\u535c", "7140": "\u8f6e\u6e21", "7141": "\u6c34\u6d41", "7142": "\u56db\u5904", "7143": "\u8d85\u70c2", "7144": "\u540c\u540d", "7145": "\u60ac\u5ff5", "7146": "\u660e\u6653\u6eaa", "7147": "\u5c3d\u60c5", "7148": "\u4e0a\u5929", "7149": "\u5238\u53ca", "7150": "\u8f83\u8d35", "7151": "\u6211\u82b1", "7152": "\u53d1\u56de\u53bb", "7153": "\u72c2\u70ed", "7154": "\u8282\u7535", "7155": "\u5145\u5b9e", "7156": "\u8bfe\u672c", "7157": "\u62dc\u8bbf", "7158": "\u5c31\u8bfb", "7159": "\u4e66\u76ee", "7160": "\u7a0d\u65e7", "7161": "\u82b1\u74e3", "7162": "\u5443", "7163": "\u538c\u6076", "7164": "\u95e8\u7968", "7165": "\u8bc4\u4e3a", "7166": "\u6781\u5c11", "7167": "\u8682\u8681", "7168": "\u8fde\u7eed\u5267", "7169": "\u4e0d\u54cd", "7170": "\u6d77\u6c34", "7171": "\u54ed\u6ce3", "7172": "\u6781\u54c1\u98de\u8f66", "7173": "\u4fbf\u6377\u6027", "7174": "\u8d58\u8ff0", "7175": "NBA", "7176": "\u597d\u51e0\u672c", "7177": "\u68a6\u56de", "7178": "\u5927\u6e05", "7179": "\u6876\u88c5\u6c34", "7180": "\u660e\u53f2", "7181": "\u660e\u6708", "7182": "\u5f88\u5e05", "7183": "\u8f66\u58f0", "7184": "\u540c\u65b9", "7185": "\u542c\u529b", "7186": "\u67e5\u9605", "7187": "\u6e38\u6cf3\u9986", "7188": "\u4f84\u5b50", "7189": "\u9605\u5386", "7190": "\u6700\u7231", "7191": "\u5b81\u590f", "7192": "\u53d1\u4eba\u6df1\u7701", "7193": "\u79d1\u666e\u8bfb\u7269", "7194": "\u6f6e\u6d41", "7195": "\u65e0\u610f\u95f4", "7196": "\u5efa", "7197": "\u8d85\u6162", "7198": "\u53cc\u4eba\u5e8a", "7199": "\u7a84", "7200": "\u534e\u7f8e\u8fbe", "7201": "\u6bcf\u4e00", "7202": "\u6c89\u6dc0", "7203": "\u627e\u56de", "7204": "\u529b", "7205": "\u5947\u8ff9", "7206": "\u5feb\u7ebf", "7207": "\u777f\u667a", "7208": "\u63ed\u793a", "7209": "\u52a9\u7406", "7210": "550", "7211": "\u7f8e\u666f", "7212": "\u522b\u81f4", "7213": "\u4e00\u6a21\u4e00\u6837", "7214": "\u8bfb\u6765", "7215": "\u4f20\u9012", "7216": "\u6025\u5207", "7217": "\u5c11\u513f", "7218": "\u7231\u5fb7\u534e", "7219": "\u597d\u4e8b", "7220": "\u8bb2\u8bb2", "7221": "\u4e09\u5206\u949f", "7222": "\u8bb0\u9519", "7223": "\u76f8\u9694", "7224": "\u65b0\u5f00", "7225": "\u5927\u547c", "7226": "\u5bc6\u5c01", "7227": "\u753b\u5bb6", "7228": "\u53d7\u4f24", "7229": "\u74f6\u88c5", "7230": "\u51fa\u552e", "7231": "\u4eba\u4e91\u4ea6\u4e91", "7232": "\u591a\u51fa", "7233": "\u6b63\u7248\u4e66", "7234": "\u6539\u52a8", "7235": "\u8272\u6cfd", "7236": "\u4e3b", "7237": "\u5584\u4e8e", "7238": "dos", "7239": "\u517b", "7240": "\u7eaf\u5c5e", "7241": "\u800c\u540e", "7242": "\u7535\u8bdd\u7ebf", "7243": "\u7ec4\u5408", "7244": "\u8fdb\u4e0d\u53bb", "7245": "\u6c99\u7530", "7246": "\u8c03\u5230", "7247": "\u770b\u65f6", "7248": "NVIDIA", "7249": "\u6570\u5b57\u7535\u89c6", "7250": "\u95e8\u5361", "7251": "\u82b1\u94b1\u4e70", "7252": "\u51e4\u51f0", "7253": "\u5174\u81f4", "7254": "\u7d22\u5c3c", "7255": "\u54c1\u884c", "7256": "\u4e14\u4e0d\u8bf4", "7257": "\u7b80", "7258": "\u5927\u534a", "7259": "\u5fc3\u9178", "7260": "\u6f2b\u753b\u4e66", "7261": "\u5b57\u773c", "7262": "\u754c", "7263": "\u6743\u5a01", "7264": "\u65e0\u8d27", "7265": "\u65e0\u4eae\u70b9", "7266": "\u5361\u8f66", "7267": "\u7528\u4e66", "7268": "\u5c31\u514d", "7269": "\u6765\u7535", "7270": "\u53d1\u4f20\u771f", "7271": "\u6307\u671b", "7272": "\u516b\u70b9\u534a", "7273": "\u9526\u660c", "7274": "\u7740\u91cd", "7275": "\u623f\u662f", "7276": "\u5927\u534a\u5929", "7277": "\u6253\u8868", "7278": "\u79bb\u5a5a", "7279": "\u59a5\u534f", "7280": "\u6ecb\u5473", "7281": "\u660e\u6717", "7282": "\u8d23\u4efb\u611f", "7283": "\u5355\u4eba\u623f", "7284": "\u6ca1\u542c\u8bf4\u8fc7", "7285": "\u623f\u65f6", "7286": "\u5835\u585e", "7287": "\u7ebf\u6761", "7288": "\u753b\u62a5", "7289": "10G", "7290": "\u6362\u56de", "7291": "\u62ff\u56de\u53bb", "7292": "\u542c\u4e0d\u89c1", "7293": "\u5c11\u89c1", "7294": "\u70b9\u56de", "7295": "\u6263", "7296": "\u7f57\u6280", "7297": "\u8001\u5927", "7298": "\u4f20\u9500", "7299": "\u54c1\u683c", "7300": "\u6e56\u666f", "7301": "\u8fd4", "7302": "\u540d\u526f\u5176\u5b9e", "7303": "\u75c5\u60c5", "7304": "\u683c\u5f0f", "7305": "\u8fd0\u7b97", "7306": "\u6628\u5929\u665a\u4e0a", "7307": "\u900f\u9732", "7308": "\u6389\u7ebf", "7309": "\u6700\u5c0f", "7310": "\u70ed\u98ce", "7311": "\u4e22\u5931", "7312": "\u91cd\u65b0\u5b89\u88c5", "7313": "\u4e0d\u6562\u76f8\u4fe1", "7314": "\u6d01\u5177", "7315": "\u7b49\u7ea7", "7316": "\u53d1\u9ed1", "7317": "\u968f\u5904\u53ef\u89c1", "7318": "\u4f7f\u4eba", "7319": "\u8fd1\u4ee3", "7320": "\u62ff\u5728\u624b\u4e0a", "7321": "\u5e26\u56de", "7322": "\u7535\u529b", "7323": "\u597d\u6162", "7324": "\u90ce", "7325": "\u8d85\u5feb", "7326": "\u70b9\u4e0b", "7327": "\u62c6\u5c01", "7328": "\u538b\u7f29", "7329": "\u540e\u679c", "7330": "\u4e0a\u6863\u6b21", "7331": "\u4e13\u5356\u5e97", "7332": "250", "7333": "\u65e0\u80fd\u4e3a\u529b", "7334": "\u6cdb\u9ec4", "7335": "\u9019\u500b", "7336": "\u8a71", "7337": "\u4f55\u5728", "7338": "\u90e8\u4efd", "7339": "\u537b", "7340": "\u7578\u5f62", "7341": "\u4e00\u7ea7", "7342": "\u7070\u8499\u8499", "7343": "\u7b2c\u4e00\u5468", "7344": "\u9709", "7345": "\u4e03", "7346": "\u70b9\u83dc", "7347": "\u4fdd", "7348": "\u8bbe\u5907\u9648\u65e7", "7349": "\u8fd0\u4f5c", "7350": "\u518d\u6b21\u53d1\u751f", "7351": "\u60b2\u75db", "7352": "\u6bdb", "7353": "\u5bc4\u8fc7\u6765", "7354": "\u6696\u548c", "7355": "\u60ac\u7591", "7356": "\u89c4\u6a21", "7357": "\u53ef\u64cd\u4f5c\u6027", "7358": "\u673a\u5668\u914d\u7f6e", "7359": "\u75c7\u72b6", "7360": "\u98df", "7361": "\u6570\u72ec", "7362": "\u65e0\u4e0d", "7363": "\u6781\u4f73", "7364": "\u4f5c\u7f62", "7365": "\u65e0\u8bba\u5982\u4f55", "7366": "\u7acb\u5fd7", "7367": "\u4e3b\u7ebf", "7368": "\u676d\u5dde", "7369": "\u56de\u8bf4", "7370": "\u65e0\u79c1", "7371": "\u6362\u6362", "7372": "\u65ad\u65ad\u7eed\u7eed", "7373": "win7", "7374": "PC", "7375": "\u63d0\u70b9", "7376": "\u6696\u98ce", "7377": "\u767e\u79d1", "7378": "\u6ed4\u6ed4", "7379": "\u5947\u6162", "7380": "\u7f18\u5206", "7381": "\u5e73\u6574", "7382": "\u5b9e\u4f53\u5e97", "7383": "\u4e1c\u897f\u65b9", "7384": "\u65b0\u4e16\u754c", "7385": "\u51cc\u4e71", "7386": "\u4eca\u751f\u4eca\u4e16", "7387": "\u65e0\u8f9c", "7388": "\u5c11\u6570", "7389": "\u63a5\u4e0b\u53bb", "7390": "\u518d\u4e0b", "7391": "\u8bfb\u7740", "7392": "\u5c0f\u5154", "7393": "\u5ab2\u7f8e", "7394": "\u4f8d\u5e94", "7395": "\u6c61\u70b9", "7396": "\u8bfe\u5802", "7397": "\u5f15\u9886", "7398": "\u55bd", "7399": "\u4e00\u6c14\u5475\u6210", "7400": "\u5f88\u4e45\u6ca1", "7401": "\u865a\u6784", "7402": "\u5f53\u5356", "7403": "\u70ed\u70c8", "7404": "\u7531\u6b64", "7405": "\u4e0b\u6c34\u7ba1", "7406": "\u5927\u5305", "7407": "\u5168\u8eab", "7408": "\u5ffd\u89c6", "7409": "\u5c0f\u59b9", "7410": "\u6765\u65f6", "7411": "\u6240\u8a00", "7412": "\u8d1f\u8d23\u4eba", "7413": "\u949f\u5934", "7414": "\u8574\u542b", "7415": "\u5f90\u5bb6\u6c47", "7416": "\u786c\u7740\u5934\u76ae", "7417": "\u6c34\u8d27", "7418": "\u5341\u4e00\u70b9", "7419": "\u53f0\u706f", "7420": "\u897f\u5355", "7421": "\u4f59\u5730", "7422": "\u65b0\u5efa", "7423": "Ctrip", "7424": "\u6df1\u7231", "7425": "\u8bfe\u7a0b", "7426": "3799", "7427": "\u9a6c\u864e", "7428": "\u521d\u604b", "7429": "\u9ad8\u4f4e", "7430": "\u8f70\u8f70\u70c8\u70c8", "7431": "430", "7432": "\u5973\u53cb", "7433": "\u9177", "7434": "\u4eca", "7435": "\u7ecf\u6d4e\u6027", "7436": "\u5bf9\u767d", "7437": "\u5165", "7438": "\u539a\u5ea6", "7439": "\u5c4f\u5e55\u663e\u793a", "7440": "\u53e3\u5934", "7441": "\uff2e", "7442": "ddr3", "7443": "\u56fd\u5185\u5916", "7444": "\u6e29\u60c5", "7445": "\u4e0a\u76d6", "7446": "\u522b\u63d0", "7447": "\u73a9\u5f97", "7448": "\u4e00\u53a2\u60c5\u613f", "7449": "\u51e0\u5757\u94b1", "7450": "\u6574\u5957", "7451": "\u8fdb\u5c4b", "7452": "\u5348\u591c", "7453": "\u786e\u4fdd", "7454": "\u6392\u540d", "7455": "\u8d76\u5230", "7456": "\u7528\u4e2a", "7457": "winpe", "7458": "mbr", "7459": "\u5916\u5bbe", "7460": "\u4f2a", "7461": "\u51b7\u70ed", "7462": "\u53f2\u5b9e", "7463": "\u5e97\u5bb6", "7464": "\u6de1\u5b9a", "7465": "\u624d\u5b50", "7466": "\u8bbd\u523a", "7467": "\u6ce1\u6cab", "7468": "428", "7469": "\u4e0d\u904e", "7470": "\u6642", "7471": "\u56fd\u5bbe", "7472": "\u4e00\u5207\u987a\u5229", "7473": "\u79f0\u4e4b\u4e3a", "7474": "\u97f3\u6807", "7475": "\u4f9b\u7535", "7476": "\u6076\u610f", "7477": "\u6734\u7d20", "7478": "\u76f4\u767d", "7479": "\u77ee", "7480": "\u4e5d\u6d32", "7481": "\u53d7\u76ca\u975e\u6d45", "7482": "\u6bd4\u8f83\u70e6", "7483": "\u8fa6\u7406", "7484": "\u5927\u529b", "7485": "OUT", "7486": "\u7e41\u591a", "7487": "\u9152\u70b9", "7488": "\u6548\u7387\u9ad8", "7489": "\u6f4d\u574a", "7490": "\u5243\u987b\u5200", "7491": "VGA", "7492": "\u9f20\u6807\u57ab", "7493": "\u5957\u88c5", "7494": "\u8def\u53e3", "7495": "\u53d7\u7f6a", "7496": "\u505a\u751f\u610f", "7497": "\u7ea2\u697c", "7498": "\u8ff7\u7cca", "7499": "\u5012\u80c3\u53e3", "7500": "\u5267\u60c5", "7501": "\u6162\u6162\u6765", "7502": "\u5c0f\u4f84\u5973", "7503": "\u591a\u5206\u949f", "7504": "\u7cdf\u8e4b", "7505": "\u95e8\u5e02\u4ef7", "7506": "\u65e0\u6570\u6b21", "7507": "\u53e4\u8001", "7508": "\u767d\u75f4", "7509": "\u5f53\u573a", "7510": "\u518d\u7248", "7511": "\u6ce2\u6797", "7512": "\u718a\u5b9d\u5b9d", "7513": "\u5976\u725b", "7514": "\u8a00\u60c5", "7515": "\u5e97\u65b9", "7516": "\u7ae5\u5fc3", "7517": "room", "7518": "stay", "7519": "\u4f84\u5973", "7520": "\u7565\u6709", "7521": "\u5e94\u662f", "7522": "\u62a5\u544a", "7523": "\u8349\u623f\u5b50", "7524": "\u51e0\u79cd", "7525": "\u6446\u8131", "7526": "\u8bf4\u670d\u529b", "7527": "\u6625\u5929", "7528": "\u56fe\u6587\u5e76\u8302", "7529": "\u51fa\u793a", "7530": "\u7cbe\u9ad3", "7531": "\u8150\u8d25", "7532": "\u5e72\u6d3b", "7533": "\u76f4\u9762", "7534": "\u4f4f\u5b85", "7535": "XX", "7536": "\u53ee\u53ee", "7537": "\u670d\u52a1\u4e2d\u5fc3", "7538": "\u5355\u70b9", "7539": "\u6392\u6c34", "7540": "\u5c0f\u5c4b", "7541": "\u73af", "7542": "\u8d35\u91cd\u7269\u54c1", "7543": "\u96c6\u5408", "7544": "qq", "7545": "\u5c0f\u5230", "7546": "\u65f3", "7547": "\u5c0f\u578b", "7548": "\u516b\u5341\u5e74\u4ee3", "7549": "\u79d1\u52d2", "7550": "\u7535\u8f66", "7551": "\u7a7a\u7740", "7552": "\u610f\u72b9\u672a\u5c3d", "7553": "\u8bd5\u8fc7", "7554": "\u5c0f\u9c7c", "7555": "\u72d0\u72f8", "7556": "\u53d7\u6b22\u8fce", "7557": "\u6ca1\u95e8", "7558": "\u90a3\u672c\u4e66", "7559": "\u4e00\u65e5", "7560": "\u4e00\u5927\u65e9", "7561": "\u676f", "7562": "\u5582", "7563": "\u5bd2\u51b7", "7564": "\u6211\u53f8", "7565": "\u4e09\u5e74\u7ea7", "7566": "\u6d88\u5316", "7567": "\u73b0\u72b6", "7568": "\u5fc3\u76ee", "7569": "\u4e0d\u5e94", "7570": "\u5199\u9053", "7571": "\u89c4\u683c", "7572": "\u7ec4\u6210", "7573": "\u6bcf\u6bcf", "7574": "\u5f80\u8fd4", "7575": "\u5104", "7576": "\u7159\u6c11", "7577": "\u5706\u6ed1", "7578": "\u4e8c\u5b57", "7579": "\u7f16\u9020", "7580": "\u5f97\u5206", "7581": "\u5fd9\u788c", "7582": "\u6781\u5f3a", "7583": "\u9019", "7584": "\u52a8\u9759", "7585": "\u57fa\u8c03", "7586": "\u6700\u53ef\u6c14", "7587": "\u731c\u60f3", "7588": "\u900a\u8272", "7589": "\u5f88\u591a\u5f88\u591a", "7590": "\u5761", "7591": "\u624b\u5199", "7592": "\u963f\u884d", "7593": "\u4f4f\u623f", "7594": "\u680b", "7595": "\u539a\u7231", "7596": "\u6cbf\u7740", "7597": "\u884c\u674e\u67b6", "7598": "\u53d1\u70e7", "7599": "\u966a\u540c", "7600": "\u6765\u4e0d\u53ca", "7601": "\u9f99\u5e94\u53f0", "7602": "30%", "7603": "\u76f4\u81f3", "7604": "\u5c0f\u624b", "7605": "\u4e07\u4e8b\u8fbe", "7606": "\u5c3d\u6536\u773c\u5e95", "7607": "\u8d22\u5bcc", "7608": "\u8d3c", "7609": "\u638f", "7610": "1421846721", "7611": "\u4e09\u662f", "7612": "\u8865\u8d34", "7613": "\u6807\u4ef7", "7614": "\u540e\u5c71", "7615": "\u51e0\u5341\u5143", "7616": "\u58f0\u8a89", "7617": "\u82cf\u4e1c\u5761", "7618": "\u9a6c\u4e91", "7619": "\u6765\u6e90\u4e8e", "7620": "\u661f\u671f\u4e00", "7621": "\u5014\u5f3a", "7622": "\u543e", "7623": "\u8046\u542c", "7624": "\u6536\u56de", "7625": "\u8bba\u575b", "7626": "\u4e00\u6279", "7627": "\u77e5\u8bc6\u5206\u5b50", "7628": "\u4e1c\u62fc\u897f\u51d1", "7629": "\u6c34\u6f2b\u91d1\u5c71", "7630": "\u63a8\u62ff", "7631": "\u6413", "7632": "\u5148\u7ed9", "7633": "\u897f\u6d77", "7634": "\u6df1\u539a", "7635": "\u949f\u70b9\u623f", "7636": "\u6570\u6b21", "7637": "\u603b\u7684\u8bf4", "7638": "\u6577\u884d", "7639": "\u4eba\u5458\u7d20\u8d28", "7640": "\u9762\u7eb1", "7641": "\u62b5\u8fbe", "7642": "\u592a\u4eae", "7643": "\u753b\u753b", "7644": "\u5c01\u9762\u8bbe\u8ba1", "7645": "\u9c8d\u7fc5\u9986", "7646": "\u4e25\u5bc6", "7647": "\u7eaf\u51c0", "7648": "\u5431\u5431", "7649": "\u5360\u7528\u7387", "7650": "\u6d17\u6d01\u7cbe", "7651": "\u5f02\u54cd", "7652": "\u5b88\u62a4", "7653": "\u5ac9\u5992", "7654": "\u6f0f\u9875", "7655": "\u592a\u6e56", "7656": "\u6124\u9752", "7657": "\u7b11\u8138\u76f8\u8fce", "7658": "\u9ad8\u539f", "7659": "\u5b98\u573a", "7660": "ide", "7661": "\u4ed4\u7ec6\u9605\u8bfb", "7662": "\u4e1c\u5238", "7663": "\u603b\u7ad9", "7664": "\u4f3c\u66fe\u76f8\u8bc6", "7665": "\u54c0\u4f24", "7666": "\u9b54\u672f", "7667": "SIS", "7668": "\u6ca1\u4eba\u6765", "7669": "\u6c11\u822a", "7670": "\u60cb\u60dc", "7671": "\u4eba\u6587", "7672": "\u76d2", "7673": "\u73bb\u7483\u623f", "7674": "568", "7675": "here", "7676": "\u53cc\u65b9", "7677": "\u8fde\u4f4f", "7678": "\u4ee3\u8868\u6027", "7679": "\u5305\u91cc", "7680": "\u83f8", "7681": "\u836f\u54c1", "7682": "\u7f57", "7683": "\u77e5\u540d", "7684": "\u91d1\u5c5e\u5916\u58f3", "7685": "\u501f\u7528", "7686": "\u8f6c\u4e58", "7687": "\u5357\u9633", "7688": "\u7b2c\u4e00\u773c", "7689": "\u66f2\u961c", "7690": "\u85cf\u7352", "7691": "\u673a\u68b0\u5236\u56fe", "7692": "\u8bf6", "7693": "\u4e09\u664b", "7694": "\u5c4b\u9876", "7695": "\u4e00\u6478", "7696": "\u6570\u7801", "7697": "\u5e02\u59d4", "7698": "100%", "7699": "WIN7", "7700": "2003", "7701": "\u5f39", "7702": "\u629b\u5f03", "7703": "\u8f70\u9e23\u58f0", "7704": "\u6765\u5f97", "7705": "\u8001\u603b", "7706": "\u4e92\u52a8", "7707": "\u4e0d\u73a9\u5927", "7708": "\u8ba1\u7b97\u673a", "7709": "\u65e9\u8d77", "7710": "\u53ef\u6068", "7711": "\u97e9\u5267", "7712": "\u897f\u533b", "7713": "\u4e00\u65e0\u662f\u5904", "7714": "\u804a", "7715": "\u4f19\u4f34", "7716": "\u7ffb\u5b8c", "7717": "\u7e41\u5fd9", "7718": "\u7269\u6b32\u6a2a\u6d41", "7719": "\u5b9e\u5c5e", "7720": "\u7ec6\u5fae", "7721": "\u4e00\u5982", "7722": "\u975e\u5e38\u5bb9\u6613", "7723": "\u542c\u8fc7", "7724": "\u5907\u6709", "7725": "\u5927\u5382", "7726": "\u5fae\u8f6f", "7727": "\u5927\u5757\u5934", "7728": "\u6d6e\u5938", "7729": "\u6302\u7f8a\u5934\u5356\u72d7\u8089", "7730": "\u763e", "7731": "\u5916\u8bed", "7732": "\u4eba\u591a", "7733": "\u592a\u8584", "7734": "\u9762\u5e26\u5fae\u7b11", "7735": "\u5927\u6253\u6298\u6263", "7736": "\u80fd\u4f4f", "7737": "\u5c0f\u6cb3", "7738": "\u9f50\u5907", "7739": "\u53e3\u624d", "7740": "\u6c14\u6b7b\u6211\u4e86", "7741": "\u53d1\u4e86", "7742": "\u538b\u5728", "7743": "\u59d1\u4e14", "7744": "\u6848\u4ef6", "7745": "\u7cbe\u5de7", "7746": "\u662f\u6211\u592a", "7747": "\u6709\u6240\u4e0d\u540c", "7748": "\u4e00\u65f6", "7749": "\u5bab\u5ef7", "7750": "\u4e16\u95f4", "7751": "The", "7752": "\u5f88\u8d35", "7753": "\u51ef\u60a6", "7754": "\u4e0a\u9501", "7755": "\u65bd\u820d", "7756": "\u4e2a\u5b50", "7757": "\u7cbe\u826f", "7758": "\u52a0\u70ed", "7759": "\u6c34\u676f", "7760": "\u8010", "7761": "\u8db4\u5728", "7762": "\u5403\u4e8f", "7763": "\u6355\u6349", "7764": "\u8e72", "7765": "\u7269", "7766": "\u6392\u9664", "7767": "\u9274\u4e8e", "7768": "\u6d01\u767d", "7769": "\u68c0\u8ba8", "7770": "\u5c0f\u5fc3\u7ffc\u7ffc", "7771": "\u6577\u884d\u4e86\u4e8b", "7772": "\u6821\u5bf9", "7773": "\u89e3\u8bf4", "7774": "\u592a\u8001", "7775": "\u4e2d\u597d", "7776": "\u65f6\u4ee3\u5e7f\u573a", "7777": "\u5404\u5904", "7778": "\u5ea7\u6905", "7779": "4299", "7780": "\u94fa\u5929\u76d6\u5730", "7781": "\u4f9b\u9009\u62e9", "7782": "\u6492", "7783": "\u96d6\u7136", "7784": "\u532a\u5927", "7785": "\u5b57\u6bcd", "7786": "\u8d35\u4e9b", "7787": "\u534a\u5c9b", "7788": "\u6574\u70b9", "7789": "\u4ff1\u4e50\u90e8", "7790": "\u5b58\u653e", "7791": "\u5c3d\u7136", "7792": "\u88c2\u7f1d", "7793": "\u51e0\u767e\u5757", "7794": "\u9001\u8fbe", "7795": "\u5413\u4e86\u4e00\u8df3", "7796": "330", "7797": "\u4e00\u5143", "7798": "\u5929\u771f", "7799": "\u4e0a\u53f8", "7800": "\u82db\u523b", "7801": "\u4e0d\u62e9\u624b\u6bb5", "7802": "\u806a\u6167", "7803": "\u5fc3\u673a", "7804": "\u5f15\u4eba\u6df1\u601d", "7805": "\u7acb\u4f53", "7806": "dvd", "7807": "\u9ad8\u5cf0", "7808": "\u53ef\u4e0d", "7809": "\u5e8a\u623f", "7810": "\u96f6\u70b9", "7811": "\u82b1\u6837", "7812": "\u53d7\u6f6e", "7813": "\u4e0b\u65ec", "7814": "\u540d\u4e0d\u865a\u4f20", "7815": "\u75ca\u6108", "7816": "\u670d\u7528", "7817": "\u81f3\u4e0a", "7818": "\u6bb7\u52e4", "7819": "\u8fce\u9762", "7820": "\u54c1\u724c\u6548\u5e94", "7821": "\u4e3d\u6676", "7822": "\u996d\u9986", "7823": "\u767e\u8d27", "7824": "\u94f6\u6cb3", "7825": "\u5c0f\u5356\u90e8", "7826": "VIP", "7827": "\u5370\u5237\u9519\u8bef", "7828": "\u6a59\u5b50", "7829": "\u7b14\u89e6", "7830": "\u6545\u4e61", "7831": "\u6f14\u5458", "7832": "\u6b23", "7833": "\u71d5\u90fd", "7834": "\u62a4\u56fd\u5bfa", "7835": "\u67aa\u624b", "7836": "\u591a\u534a", "7837": "\u7172", "7838": "\u6211\u9009", "7839": "\u52fe\u8d77", "7840": "\u4e09\u53e3", "7841": "\u7a97\u53f0\u4e0a", "7842": "\u63a8\u5f00", "7843": "\u6d77\u98ce", "7844": "\u90fd\u5e02", "7845": "\u96e8\u4f1e", "7846": "\u98ce\u91c7", "7847": "\u6ca1\u4e8b\u627e\u4e8b", "7848": "\u601d\u5b58", "7849": "\u4e00\u4e24\u5e74", "7850": "\u6784\u67b6", "7851": "\u5b9a\u65f6", "7852": "\u70ab\u8000", "7853": "\u5806\u79ef", "7854": "\u7a0d\u540e", "7855": "\u5348\u996d", "7856": "\u7cfb\u7edf\u6027", "7857": "\u8925\u5b50", "7858": "\u5317\u6234\u6cb3", "7859": "\u5927\u4f5c", "7860": "\u591a\u597d", "7861": "\u5306\u5306", "7862": "\u731c\u6d4b", "7863": "\u9ed8\u9ed8", "7864": "\u4e34\u8d70", "7865": "\u82b1\u56ed\u9152\u5e97", "7866": "\u5916\u8d44", "7867": "\u9f20", "7868": "\u9ad8\u6863", "7869": "\u88c5\u56de", "7870": "\u5199\u4e66\u4eba", "7871": "\u5bcc", "7872": "\u75b2\u52b3", "7873": "\u6c11\u5c45", "7874": "\u4e0b\u697c\u53bb", "7875": "\u5f88\u60f3", "7876": "\u6b64\u751f", "7877": "\u7b2c\u4e00\u904d", "7878": "\u53f3\u4e0b\u65b9", "7879": "\u5927\u80c6", "7880": "\u738b", "7881": "\u53e6\u7c7b", "7882": "\u8c6a", "7883": "\u9065\u63a7", "7884": "\u6362\u6389", "7885": "\u6e7e\u4ed4", "7886": "\u6df1\u60c5", "7887": "\u8f93\u51fa", "7888": "178", "7889": "\u5c0f\u770b", "7890": "\u5ce8\u7709\u5c71", "7891": "\u5ba2\u8fd0", "7892": "\u4e00\u652f", "7893": "\u4ec0", "7894": "\u9000\u6389", "7895": "4599", "7896": "\u62f1\u5317", "7897": "\u5173\u53e3", "7898": "\u6bd4\u4ef7", "7899": "\u6e05\u9999", "7900": "\u7d2f\u8d58", "7901": "\u4e4b\u9ad8", "7902": "\u4e07\u91cc", "7903": "\u65b9\u65b9\u9762\u9762", "7904": "\u5bc4\u56de", "7905": "\u79ef\u6c34", "7906": "\u82b1\u76c6", "7907": "\u5168\u96c6", "7908": "\u6709\u610f", "7909": "\u96be\u9898", "7910": "\u8d85\u5c0f", "7911": "\u957f\u6c99", "7912": "\u7b2c\u516d", "7913": "\u9876\u76d6", "7914": "\u5730\u5199", "7915": "\u5fc3\u4e8b", "7916": "\u592a\u68d2\u4e86", "7917": "\u6307\u5357", "7918": "\u9898\u5e93", "7919": "\u6807\u8bc6", "7920": "HR", "7921": "\u888b\u5b50", "7922": "\u6700\u957f", "7923": "\u5f80\u6765", "7924": "\u4e00\u8def\u4e0a", "7925": "\u4fdd\u6e29", "7926": "\u5439\u5618", "7927": "\u53d1\u6398", "7928": "\u5085\u4f69\u8363", "7929": "\u73b0\u5df2", "7930": "\u65e0\u7406", "7931": "3400", "7932": "\u603b\u8981", "7933": "\u542b\u4e49", "7934": "\u878d\u5408", "7935": "\u59d4\u5c48", "7936": "\u6bc1", "7937": "asus", "7938": "\u4eba\u624b", "7939": "\u4e00\u5757\u5757", "7940": "\u4e00\u8138", "7941": "\u957f\u57ce", "7942": "\u5475\u62a4", "7943": "\u4eac\u8154", "7944": "\u7f13\u7f13", "7945": "\u8ba4\u8bc1", "7946": "\u6ee1\u597d", "7947": "\u505c\u987f", "7948": "\u7761\u89c9\u65f6", "7949": "\u653e\u8fdb", "7950": "\u5404\u5927", "7951": "\u5fc3\u5883", "7952": "\u7b2c\u4e00\u5bb6", "7953": "\u7c97\u770b", "7954": "\u804c\u4f4d", "7955": "\u8003\u7814", "7956": "\u4e0d\u8a00\u800c\u55bb", "7957": "\u8d76\u56de", "7958": "\u4e00\u523b", "7959": "\u4ea4\u63a5\u73ed", "7960": "\u767d\u7ca5", "7961": "37", "7962": "618", "7963": "\u53d1\u81ea\u5185\u5fc3", "7964": "\u4e0b\u8f7d\u5b89\u88c5", "7965": "\u7a7a\u8361\u8361", "7966": "\u52b1\u5fd7\u4e66", "7967": "\u54af\u54af", "7968": "\u5bf9\u4e0d\u4e0a", "7969": "\u5185\u5fc3\u6df1\u5904", "7970": "\u9001\u56de", "7971": "\u6536\u8d70", "7972": "\u6e0a\u6e90", "7973": "\u5c0f\u7ea2\u5e3d", "7974": "\u6284\u88ad", "7975": "\u98de\u673a\u573a", "7976": "\u5929\u540e", "7977": "\u70b9\u540e", "7978": "\u7c98\u7740", "7979": "\u6cb3", "7980": "\u5360\u7ebf", "7981": "\u8089", "7982": "\u80fd\u4ee5", "7983": "\u4e0d\u5305", "7984": "\u70b9\u513f", "7985": "\u4e2a\u5934", "7986": "\u4e2d\u80af", "7987": "\u4e0d\u7531\u81ea\u4e3b", "7988": "\u55ef", "7989": "\u5ba4", "7990": "\u4ef7\u4fdd", "7991": "\u53ea\u82b1", "7992": "\u592a\u65e9", "7993": "\u4e3d\u6c5f", "7994": "\u8eb2", "7995": "\u7231\u4e66", "7996": "\u6253\u53d1", "7997": "\u90a3\u5bb6", "7998": "\u70df", "7999": "\u8010\u810f", "8000": "\u73ed\u6b21", "8001": "\u5408\u80a5", "8002": "\u7279\u5f81", "8003": "\u5269\u4f59", "8004": "\u53ef\u4f9b", "8005": "\u6309\u7740", "8006": "Xp", "8007": "\u79d1\u5b66\u6027", "8008": "\u51e0\u6b3e", "8009": "\u5e0c\u6377", "8010": "\u8d77\u6e90", "8011": "\u8010\u7740", "8012": "\u65e5\u624d", "8013": "\u597d\u8fc7", "8014": "\u81ea\u52a9\u6e38", "8015": "\u5bf9\u53f7\u5165\u5ea7", "8016": "\u4e0a\u73ed\u65cf", "8017": "\u5b9d\u5178", "8018": "\u62d6\u62c9", "8019": "\u9e2d\u7eff\u6c5f", "8020": "\u9876\u697c", "8021": "\u57ce\u91cc", "8022": "\u4e0d\u539a", "8023": "\u5bb6\u5ead\u7248", "8024": "\u95fb\u6240\u672a\u95fb", "8025": "\u7eda\u4e3d", "8026": "\u4f9d\u8d56", "8027": "\u82e5\u5e72\u5e74", "8028": "\u4e24\u90e8", "8029": "\u75d8\u75d8", "8030": "\u52a0\u5feb", "8031": "\u65e0\u89c6", "8032": "\u62a5\u9519", "8033": "\u51b7\u9759", "8034": "\u5c11\u8bb8", "8035": "\u4e3b\u4eba\u7fc1", "8036": "911", "8037": "\u65e0\u53ef\u5948\u4f55", "8038": "\u5708", "8039": "\u65e0\u5904", "8040": "\u4e0b\u5c42", "8041": "\u6cb9\u6f06", "8042": "\u8d85\u5dee", "8043": "\u6253\u78e8", "8044": "\u8272\u5dee", "8045": "\u73b0\u4ee3\u4eba", "8046": "\u76d6\u677f", "8047": "\u521a\u4f4f", "8048": "\u524d\u4eba", "8049": "\u67dc\u95e8", "8050": "\u5236\u670d", "8051": "\u4e8c\u5c81", "8052": "\u51e0\u5957", "8053": "\u505a\u68a6", "8054": "\u524d\u8f88", "8055": "\u8bd1\u672c", "8056": "\u7528\u4e0d\u4e0a", "8057": "\u6076", "8058": "\u8fd1\u65e5", "8059": "\u6bcf\u623f", "8060": "\u80a0\u80c3", "8061": "\u4e66\u623f", "8062": "\u547c\u5438", "8063": "\u5bc4\u6765", "8064": "\u8fdf\u949d", "8065": "\u641e\u4e0d\u6e05", "8066": "\u4e0d\u76f8\u79f0", "8067": "[", "8068": "]", "8069": "\u9178", "8070": "\u5410\u51fa\u6765", "8071": "\u6454", "8072": "\u8a00\u8fc7\u5176\u5b9e", "8073": "\u591a\u6536", "8074": "\u5efa\u8bbe\u8d39", "8075": "\u62ff\u8d27", "8076": "\u5f88\u7740\u6025", "8077": "\u771f\u8c1b", "8078": "\u5173\u8054", "8079": "\u4e0d\u5df2", "8080": "\u6389\u8272", "8081": "\u56e0\u79bb", "8082": "\u8bf7\u5ba2", "8083": "\u5148\u8981", "8084": "\u6539\u540d", "8085": "\u8bf4\u9519", "8086": "\u4e0d\u957f", "8087": "\u5bc6\u5bc6\u9ebb\u9ebb", "8088": "\u5c41", "8089": "\u5e76\u5165", "8090": "\u7ae0", "8091": "\u767d\u9e6d\u6d32", "8092": "\u540c\u4f34", "8093": "\u56de\u623f", "8094": "\u77ed\u77ed\u7684", "8095": "\u626b\u5174", "8096": "\u7c7b\u4e66\u7c4d", "8097": "\u513f\u7ae5\u8282", "8098": "\u4e2d\u534e\u6c11\u65cf", "8099": "\u7f13\u6162", "8100": "\u7956\u56fd", "8101": "2899", "8102": "\u53a6\u5927", "8103": "\u5426\u5b9a", "8104": "\u534a\u6b7b", "8105": "\u5f25\u6f2b", "8106": "\u5c11\u5973", "8107": "\u9996\u65e5", "8108": "\u8f83\u5168", "8109": "\u8981\u6362", "8110": "\u8bf4\u6210", "8111": "\u5e02\u5185", "8112": "\u5f00\u623f", "8113": "\u80e1\u626f", "8114": "\u54c1\u724c\u673a", "8115": "\u5b9e\u8df5\u6027", "8116": "\u53ef\u8d35", "8117": "\u6ee1\u6ee1\u7684", "8118": "\u671d\u7740", "8119": "\u7aef\u5348\u8282", "8120": "\u4f01\u4e1a\u5bb6", "8121": "\u6cbf\u9014", "8122": "\u8fdb\u5230", "8123": "\u5b58", "8124": "\u5494\u54cd", "8125": "\u9f13\u70b9", "8126": "\u96f6\u6563", "8127": "\u865a", "8128": "\u9690\u853d", "8129": "\u96c6\u7ed3", "8130": "\u5927\u7406\u77f3", "8131": "\u8d74", "8132": "\u5357\u6234\u6cb3", "8133": "\u9ad8\u4eba", "8134": "\u53c2\u89c2", "8135": "\u5dee\u591a", "8136": "\u5f52\u7eb3", "8137": "\u8ddf\u8e2a", "8138": "F2", "8139": "56", "8140": "\u5e78\u798f\u5feb\u4e50", "8141": "\u4e3a\u4eba\u5904\u4e8b", "8142": "\u6fc0\u8361", "8143": "\u6db5\u76d6", "8144": "\u6700\u9ad8\u7ea7", "8145": "\u4e0d\u6362", "8146": "\u5bb0\u5ba2", "8147": "\u8981\u4ef7", "8148": "\u8001\u4eba\u5bb6", "8149": "\u5403\u4e0d\u6d88", "8150": "\u52ff\u5fd8", "8151": "\u53c2\u8003\u4e66", "8152": "\u5c0f\u4f19\u4f34", "8153": "\u72e0\u72e0", "8154": "\u6709\u4f59", "8155": "BOIS", "8156": "\u592a\u7c97", "8157": "\u594b\u6597", "8158": "\u53f7\u623f", "8159": "\u7b2c\u4e8c\u5957", "8160": "\u4e0d\u540c\u4e8e", "8161": "\u5927\u706f", "8162": "\u66f4\u5927", "8163": "\u522e\u75e7", "8164": "\u7ca4\u6d77", "8165": "\u8da3\u4e8b", "8166": "\u5341\u8db3", "8167": "\u6e2f\u6fb3", "8168": "\u6e2f", "8169": "\u8857\u5934", "8170": "\u7f16\u7a0b", "8171": "\u8ffd", "8172": "\u743c\u7476", "8173": "\u6539\u7f16", "8174": "\u53e3\u611f", "8175": "\u6446\u653e", "8176": "\u63a5\u7ad9", "8177": "\u51e0\u90e8", "8178": "\u5730\u95ee", "8179": "\u5199\u5b57", "8180": "\u770b\u6837\u5b50", "8181": "\u8ff7\u4fe1", "8182": "\u76f8\u4eff", "8183": "\u597d\u4e45\u6ca1", "8184": "\u5929\u6daf", "8185": "\u5b89\u610f", "8186": "\u7740\u8ff7", "8187": "\u54c8\u54c8\u5927\u7b11", "8188": "\u5468\u4e8c", "8189": "\u5fd8\u5e26", "8190": "\u7c89\u4e1d", "8191": "\u82e5\u5e72", "8192": "\u5c14\u865e\u6211\u8bc8", "8193": "\u6bcf\u6bb5", "8194": "\u592a\u4e11", "8195": "\u82e6\u96be", "8196": "\u4eba\u6709", "8197": "\u8bba\u8bc1", "8198": "\u51fa\u4eba\u610f\u6599", "8199": "\u65e5\u671f", "8200": "\u7531\u6d45\u5165\u6df1", "8201": "\u7d66", "8202": "\u4f20", "8203": "\u51ed\u501f", "8204": "\u4eb2\u8eab", "8205": "\u770b\u5f97\u61c2", "8206": "\u5b97\u6559", "8207": "\u4e4b\u60c5", "8208": "\u4e32", "8209": "\u770b\u6709", "8210": "\u4e00\u5207\u6b63\u5e38", "8211": "\u4e0d\u4e86\u4e86\u4e4b", "8212": "\u5947\u5c0f", "8213": "\u5c4b", "8214": "\u8d81", "8215": "\u699c", "8216": "\u6b63\u5408\u9002", "8217": "\u751c\u70b9", "8218": "\u5374\u8bf4", "8219": "\u5206\u51fa", "8220": "\u7b97\u597d", "8221": "\u6551", "8222": "\u6ca1\u62ff\u5230", "8223": "\u72b9\u5982", "8224": "\u98ce\u7b5d", "8225": "\u6b27\u6d32\u676f", "8226": "\u8fd9\u65f6\u5019", "8227": "\u73e0\u6d77", "8228": "\u5f31\u667a", "8229": "\u4e0d\u4f26\u4e0d\u7c7b", "8230": "3299", "8231": "\u738b\u8001\u5e08", "8232": "\u8fd8\u8d35", "8233": "\u6de1\u6de1", "8234": "\u6de1\u7136", "8235": "\u641c\u96c6", "8236": "\u54d7\u4f17\u53d6\u5ba0", "8237": "\u4fd7\u4eba", "8238": "\u5404\u4eba", "8239": "\u80dc\u8fc7", "8240": "\u810f\u4e71", "8241": "\u8d26", "8242": "\u7b2c\u4e00\u53e5", "8243": "\u5916\u5899", "8244": "\u610f\u89c1\u53cd\u9988", "8245": "\u61e6\u5f31", "8246": "\u732a", "8247": "\u54d7\u5566", "8248": "\u81ea\u5907", "8249": "\u5c0f\u9547", "8250": "\u9ad8\u4e2d\u751f", "8251": "\u7b28", "8252": "\u9a74\u53cb", "8253": "\u77f3\u5bb6\u5e84", "8254": "\u597d\u592a\u591a", "8255": "\u4e1c\u8857\u53e3", "8256": "\u7f29\u5c0f", "8257": "\u8de8\u8d8a", "8258": "\u6d74\u76c6", "8259": "\u4f20\u6765", "8260": "\u6210\u5fc3", "8261": "\u620f\u8bf4", "8262": "\u5e7d\u9ed8\u611f", "8263": "\u4e9a\u592a", "8264": "\u69fd", "8265": "\u53e6\u6709", "8266": "R", "8267": "\u597d\u6b79", "8268": "SL", "8269": "\u8001\u5934", "8270": "\u53d8\u76f8", "8271": "\u6784\u5efa", "8272": "\u6df3\u6734", "8273": "\u6c14\u6b7b\u4eba", "8274": "\u4e5d\u6c5f", "8275": "\u4e9a\u9f99\u6e7e", "8276": "\u6d77\u6d6a", "8277": "\u5165\u7720", "8278": "\u6df1\u8fdc", "8279": "\u8d62\u5f97", "8280": "\u597d\u8f6c", "8281": "b", "8282": "\u5343\u5143", "8283": "\u5eb7\u4e50", "8284": "\u672c\u7740", "8285": "\u7f8e\u98df\u8857", "8286": "\u8eab\u5728", "8287": "\u6df1\u53d7", "8288": "\u51bb\u5f97", "8289": "\u7406\u4f1a", "8290": "\u53cd\u5bf9", "8291": "\u771f\u5b9e\u611f", "8292": "\u6df1\u5f97", "8293": "\u3008", "8294": "\u4e0d\u592a\u61c2", "8295": "\u505a\u4f5c", "8296": "\u6b8b\u65e7", "8297": "\u7f6e\u4e4b\u4e0d\u7406", "8298": "\u62c9\u5ba2", "8299": "\u65cf", "8300": "\u4e0d\u89e3", "8301": "\u8ba2\u597d", "8302": "\u6709\u623f", "8303": "__", "8304": "\u4e00\u888b", "8305": "\u6446\u51fa", "8306": "\u59ff\u52bf", "8307": "\u9996\u6b21", "8308": "\u9884\u4ed8", "8309": "\u7518\u8083", "8310": "\u675f\u7f1a", "8311": "\u5929\u4e66", "8312": "\u575a\u97e7", "8313": "\u53ea\u53d1", "8314": "\u8bb2\u8bdd", "8315": "\uff29", "8316": "\u518d\u88c5", "8317": "\u5168\u4e16\u754c", "8318": "\u4e22\u4eba", "8319": "\u751f\u5e73", "8320": "WINPE", "8321": "\u4e0d\u826f", "8322": "\u61c9\u8a72", "8323": "\u6240\u8b02", "8324": "\u6cbb\u7597", "8325": "\u6cf0\u56fd", "8326": "\u6ce8", "8327": "\u5dee\u4e9b", "8328": "BASIC", "8329": "1066", "8330": "\u8d77\u521d", "8331": "\u70f9\u996a", "8332": "\u7d2f\u4eba", "8333": "\u88c5\u6210", "8334": "\u4e2d\u65ad", "8335": "\u675c\u7edd", "8336": "\u8bd7\u6b4c", "8337": "\u65e9\u65e5", "8338": "\u597d\u5f97\u591a", "8339": "\u6c14\u5019", "8340": "\u4e08\u592b", "8341": "\u4e0d\u7075", "8342": "\u6d59\u6c5f", "8343": "\u6e38\u89c8", "8344": "\u522b\u88c5", "8345": "\u9644\u52a0", "8346": "\u7a81\u53d1", "8347": "\u65f6\u6bb5", "8348": "\u56f0", "8349": "13.3", "8350": "\u6211\u4e0b", "8351": "\u4e11\u964b", "8352": "\u6076\u68a6", "8353": "\u65f6\u4e70", "8354": "\u6c38\u4e0d", "8355": "\u77e5\u6653", "8356": "\u65e5\u540e", "8357": "\u4e89\u53d6", "8358": "\u9ad8\u660e", "8359": "\u9897", "8360": "\u5b9e", "8361": "\u611f\u67d3\u529b", "8362": "\u9884\u5907", "8363": "\u9152\u6c34", "8364": "\u94f6\u8033", "8365": "\u5fc3\u65f7\u795e\u6021", "8366": "\u52ff", "8367": "\u804c", "8368": "\u53d8\u538b\u5668", "8369": "\u4e0d\u6703",
[...]
